3AB6
3B02
3A30
BA64
BB20
3AA2
BA65
3B15
BA26
3ACD
BA2D
B788
39DE
3A7B
3A4F
BB0C
BA50
3ACC
BA5F
B93C
39DF
3AC2
3A31
3A5B
3A8A
BA92
B921
3A80
B7B6
3A18
B9EB
BA75
3A84
3A63
B9C5
B8B8
BAA7
B99C
BA8D
B9AA
B9F0
3A36
3B23
B9E9
BAC8
BA9E
BB04
BA7B
BAAA
BA11
BADE
3A8F
B793
BA72
3AE7
BA41
B9C1
B97A
3989
BA04
B9A9
B9ED
BA2B
B9C4
3AC4
BA8C
BA38
39E8
394C
B8BB
B959
3A7F
37CF
BB26
BB1B
395F
BA9C
39BA
3A5A
3ACB
3AC6
3801
BA05
B98F
BA63
3AAA
3A1D
3A3C
3A1F
3A14
BAED
397E
BAE1
B9DB
3964
BA72
BA02
BAF5
BA86
38DC
396B
3B01
BA59
BAA4
3A4E
3A89
3A62
B8CF
390A
B9EF
BA20
3A08
BA0B
B99D
B908
3AB7
3780
B92E
BA1D
39D3
385D
39A4
39C0
39B5
BA09
3AEB
3A0E
BA07
3938
BB04
BAC2
BA0D
3989
39D7
B982
3A12
BA7F
B839
B9CD
BA52
B923
BA75
39B9
3904
BB2A
3946
3A13
39B2
B9F3
BA04
3A9D
3A84
BAB9
BAC0
B92A
BAEF
39F1
B9E9
3A95
B83D
3938
3A83
B99A
BAC3
B7E0
3B00
B903
3A6C
B980
BA26
B9C6
B982
3A5D
39AB
399F
B9BA
3A8D
3A3D
3A83
BAB6
3AEB
39DF
B7D9
BA17
3AF3
3ACF
3972
3A86
384E
BA96
B8E9
BA3C
BA9F
3A65
3992
3AE2
37DE
BAF1
B93F
3A0E
3AAA
39BC
3A4D
3A2C
3A6C
BA2D
BAAC
3A0D
BAA3
39E0
3A28
BAA2
3ADD
B8A2
BA3B
3ABB
B90C
BA0F
39BA
BA59
B941
3A2F
3A58
B999
BA2A
3A05
393A
39FE
BA5C
B9FA
3A36
387E
B9EA
BA84
B9A8
3A03
BA4F
B9D4
BA87
3943
BB03
BB10
3A32
393A
B9D5
B98C
BA8B
B867
BABF
3AC9
3986
39CD
BA72
BA35
B9F5
3A25
3A52
BA01
38FC
3A8C
B8A4
3A9E
BA2D
B94A
3A99
3A8E
B8CC
B93E
B99E
B929
BB0A
3883
B8DE
B98C
3963
3AE9
3A42
3AD0
B98C
3967
39B3
3969
39A0
3830
BA96
39AB
3AD4
3AA8
3A7A
3A21
3847
3836
3B09
BB29
BA83
3981
3B0E
3A61
B8AE
B992
3A87
3A8A
3AC1
B9E9
3A01
BAA8
B918
3A23
39A2
B9D5
B956
B900
38D8
3AD8
3A0B
BA02
BA86
3AEF
39E8
3A07
B8C5
3AB3
3AAE
39A6
B9E1
B959
BA97
B9B0
3AA1
BA2B
3AA6
BA08
3ABA
3B00
BAA1
BACE
39B4
3A9E
3815
3934
3A4E
B8DC
B90E
3B09
BA43
BA2B
BB1B
BAB7
3B27
BABE
BA1C
B7D6
B90B
3A2B
3B24
3A2F
3A3B
3A85
39B4
3A3E
BA2B
BACD
3805
BA23
3A68
3A98
3983
B9D6
BA14
BB30
39F4
BA54
3B7C
BA91
39F9
39DE
38DB
BA09
3A1C
BA11
398D
390C
3ACC
3A2A
3ABD
393B
B848
3904
BA73
3A07
3895
BA8E
3AFC
3921
BA87
3A68
B9EC
3A1F
3A2E
39EB
BADD
394D
BAE6
BA1D
B8B6
3A25
3A2D
39A4
3979
3A4F
BA83
3970
39A9
3A63
39D6
B9C6
B9BE
B954
BA88
3A17
39B2
BA76
BA5B
BAAC
BA3E
B96A
BA02
BA5F
3902
3A2A
BB1F
3A5C
3AC7
BB05
3AB2
B9F9
BA40
3A9B
B9FB
3A8F
B915
3A40
BA30
BB01
B95E
38C4
3958
3A89
3B0A
3A84
3A08
B93C
39B2
BAC4
B90E
38B5
3A91
39CA
3A1C
3AE4
3AAA
BB0C
B981
BAB6
BA31
3AFF
BA15
3AD9
BAFB
B915
BA5D
39CE
3A1A
3AC8
3A00
38C9
BAB6
BA9F
BA09
38CA
3AB2
39FA
39BD
3A8D
BA3D
BA55
BA11
3A4D
3826
B9F6
390D
3A1E
B932
3B07
3AD6
B7D6
39E7
BAB9
38D1
B91A
BA3D
3A0A
BA24
3ABE
3A85
BAC4
3932
3AB9
3A00
38AB
39EF
3ACA
B8FA
BAF9
3A1B
B990
B9CC
BAC1
BA60
3828
BA7A
3A14
3A8A
3A23
3A97
3A1E
B9F0
BA44
3946
39DF
BA09
3A94
B962
3A13
3A9F
3AA7
BA90
3A94
3B06
B921
3A14
3A26
BA32
3A4E
3A27
B99A
39D2
BA1C
3AC7
B9B3
BA45
3B07
BB0F
3979
B9C4
38F9
3A07
B9A6
3B09
3ABF
3AC5
BA4F
BA08
B99E
3918
B9BE
BA7F
B999
3A0A
BACB
BA26
BA41
391D
3B10
3982
3A86
3A95
3A76
BA34
3A5A
3A33
39E6
BA0F
3B06
3AD0
B98C
BA2A
BA95
BA10
BADD
BA80
BA0F
B916
BA36
38C1
BA64
3AEB
BA75
3AB7
3A41
B7C7
B820
3AB3
397C
3896
3A13
3ABB
3B35
BA77
3A64
39DA
3AE8
3A2D
BB22
B760
3A07
BA3F
B96E
3A82
3AA4
BA83
385A
BA0A
BA4B
38F3
3790
3A0A
B9B7
B984
3A3B
B9BD
B8D8
3A40
BA93
B931
B98B
3A69
3A3E
369D
B9A7
3A26
BA88
3AD3
B93F
B9B0
BA23
BABA
BA3D
BA06
393B
B9B1
B9E3
B81E
B947
B915
3AD1
BA8F
3A66
B97A
B9B2
3B0E
BA4D
BAC5
3A7A
39A3
B959
3A24
3A2A
3B10
B9A6
BA8B
3A9C
BA2C
38FD
3A8B
3A96
3B24
BA7E
BA78
3A04
38F7
3832
BB0B
3AA5
BA64
3A18
BB05
BA0C
BA65
38ED
B9CC
BA56
BA6D
BA90
3AA8
B953
BA9C
3AB4
BA01
3893
B98E
BAE5
39D5
35F6
B9C8
BAAB
B8D3
399F
3B18
3ADF
3985
3A55
BA46
B9CE
B9AE
382E
3A55
B9D7
B898
3A62
BA82
BB17
BA85
BB09
3A5F
BAE0
BAC1
BA57
3A8D
3AC0
B869
BA04
3A19
B6F9
BAA2
39B5
3A9A
BA12
B943
39CB
3AF4
3ABA
BA3A
39A2
3A27
BA74
3A91
3A86
3991
39B0
B9AB
B997
B983
3A39
3A12
B7DB
BAEA
3A04
B9B8
3948
BA64
BAC1
BA53
3ACE
BA96
3A10
3AAF
BA9E
3A0B
BA13
39E9
BA3D
3AB0
BAA0
BA90
BA4A
BA71
3A4B
3B2D
BA54
3865
3A1A
BAB0
39F4
3B10
387A
3640
B7F8
BA27
3B10
3964
B941
3970
B970
BA1F
382F
3924
BA9B
39CC
BA99
B95A
371E
B9EF
B9B4
B805
BA0F
BB0E
BAA5
B586
BAD1
39F8
3A8A
BAB1
BA2D
BA99
39E0
3B05
B91F
B819
3AE4
397B
BB0C
B8F0
3A14
BA30
39F9
3A8F
3AA2
B9CE
3A5C
B999
BA24
B83A
38A8
3A6F
3A9F
3A2F
B9E3
39BF
B917
3A8A
3929
BAC9
B9E4
BA27
B9B9
3A5C
BA48
387C
3A9D
B9B5
3A61
BA63
BA1C
B618
BA81
BA2C
3930
38C5
3AC9
BA25
B66F
BAD0
3AAE
383E
BA64
BABB
3A9C
37EE
39A4
BB0D
BABD
BA76
3A8E
B9CE
BAAD
398B
B977
BA39
B9A7
3A29
BA9D
B9E0
B9DC
3A4D
BA53
BA4C
3AB8
3B05
B8F2
BA99
BA1F
3A2F
B859
3A97
3AD5
BB0A
3945
3AE7
BA52
B97D
BA9B
BA86
BAF9
39F2
B9E4
3AAB
3AB3
BA9B
B9A4
BA62
BAA9
B9B6
39E2
B9F5
38FE
3AF9
B9AF
391E
B9F3
3AED
BA66
3A7E
3B2B
BB23
B75F
BA8C
BA04
39C4
BABE
BA24
3B41
3ABE
3B10
38A3
3A6A
B9C7
BAAC
39EE
BB04
39D3
3AB6
3A1B
3A49
B9D6
BA8E
37DA
B99E
BA16
B9B1
38B4
B9E4
B988
39DE
3AB6
B96E
BA02
3A81
BA07
3A8D
BA92
3A0E
BA6F
BA4E
BA3E
BAC4
3958
BA0C
BAE7
3A2E
38C4
3A6E
BA41
B9A1
3B03
3A45
B9AB
3A7B
3A1B
BA82
3AE2
B9B6
BAB1
3963
3A2B
B8F7
BA9F
BAD1
BA37
BADC
3A33
BA73
3AEB
3ADC
3893
3A40
BA3B
3883
3AEE
B984
3B0C
BA98
3A8C
B99F
3A20
BA39
BA09
B7A1
BA28
3AE7
BAC6
BAA1
B785
BA64
3A1B
BA1E
38A8
3A90
3A11
39C9
3B04
B936
3A79
B802
3781
BA90
B95C
B99F
BAAB
3955
B9B5
37B1
3A76
3A5D
B94C
B920
BA48
BA2A
BACB
3A27
3AA8
3B0A
BB0C
B8D9
BA6F
B9E9
BAA9
BAF7
3AB1
39AD
3ACF
BA8A
B936
BA1F
3A04
B85A
BB23
BA90
BA25
BA47
3A87
BA9E
BA7B
BA1D
BABA
B833
3A90
392C
3A98
39B6
38CD
B7E2
3A0D
BA42
3A7F
BA94
B98F
BB11
BB33
B982
BA80
3883
BA20
3961
BA0E
3A38
3AB8
BAA5
394F
3A2C
39B0
3AC5
BAA4
B8BA
BAAD
3AD2
3A25
B980
B8CD
BA00
39FE
395A
3A02
39B1
BB41
BA90
BAF9
3A9E
3A33
BA83
389F
B9A8
3982
B9F6
3AEB
3A3C
3AC4
3956
B812
BA9E
B90C
3ACA
BA7D
BA7E
3A52
3619
3A0A
BA64
3A1B
3A25
BAA2
3AE5
3A26
B92F
B912
B914
39BB
3A2D
BA37
B9A9
39C4
BA45
B9FF
3A42
BA05
3AC8
3A86
3A88
3AEF
BA70
BB1C
3950
B9DE
B9BE
BA42
BB15
B97B
3A8B
BAA2
3A49
B9BF
3A4F
BA41
BACD
B71B
3A83
BA3A
B988
BA20
BA92
BAF4
39F2
BAB1
BAC7
BA69
3A45
B889
3990
3A88
B9D8
B95B
B9E8
395C
3AAF
3A86
B81A
3AA9
3A80
B8D3
3980
B9F5
BA23
BA18
BA42
3825
3A8B
3A7C
B98F
B9EF
BA28
B885
B94D
BA3A
38C8
BAA5
3A83
B9C1
BAD3
BA62
3A5E
39B5
3A44
3AA2
39A2
B9A7
B991
39AF
BA75
BA60
3731
B95B
399A
B8EB
3A68
BB2C
B9AD
B8BB
B90D
B8D0
BAC7
B9E7
BAA4
BA6B
BB0A
3AA1
39F3
BA6D
3A1F
39DE
B91F
39DD
39CA
BA86
39EA
BAA9
B980
3AAC
3A8C
398C
BA09
3AF6
38D1
3AA9
B927
B8E2
3A1F
3AF1
BA01
3A93
3A18
BAB9
BA62
3A3E
3A43
39B5
389B
3A85
3A21
397A
B9BA
3A73
BB09
B9A7
3A53
3A06
3ABE
3AB5
BAB0
BA86
B9F2
38B6
3906
B9FA
BA6D
3A4B
BA81
BA61
385E
BA56
3967
3AA1
BA98
BAF2
3813
3A03
BA96
B9FA
39F6
B8DE
3967
3A7C
3AA4
BB02
3942
BA6A
BAD5
3AFC
3A57
3B26
BA85
39ED
3993
BA19
3B08
BA9C
38F9
3A22
39C4
B9C7
378B
3861
BAE7
B9D1
B828
3A69
BAD9
B77D
39C4
BAB2
3AB9
BB05
B806
BABA
BAAF
3990
3A1E
3A78
BA0F
3A0D
39BF
B9DE
39B3
3942
3A7F
B71B
385A
BA05
3A5C
BA8A
3A9C
39BD
3AD9
BA85
B95A
BABF
BAA8
3986
BA78
39CD
BA8C
B83C
3ABE
3A4D
3A8F
B907
BA82
BABE
3995
3B11
39D7
BA68
B94E
B8E5
BA1F
BA20
B9C2
3B48
BA38
BA0C
BA6A
BB01
3A9F
BA10
BA83
3A4F
B845
3B0C
BB0F
B94B
3875
BA4D
3AA0
3A3C
3AEF
B99F
B98E
3A67
B99A
3A01
BA29
BA96
3A99
3A8B
392C
39A6
3A2F
BA19
39B0
3A7C
3ABB
3AA3
B9E7
3A88
B919
3A99
3A51
39A8
3AAE
B9C1
3980
BA79
B891
BAA2
3B0E
B980
3A12
BA28
BA1C
39A9
3AEF
3B01
3A9B
3AE5
BAB6
BA2D
38C6
3B03
B99F
3A8D
BA2A
BA23
3A69
3A9D
3AD5
BAC5
39B6
B97E
389C
BA7F
39D3
3822
3A1A
37B6
3A87
3AA9
3B06
B96E
B9DC
B9CE
BA03
3AB0
BB35
BAC6
B8C1
3A40
392F
3A16
39D1
38C2
3A2B
3A17
39F5
BA26
BAD3
BB02
3A1E
B98C
3996
3AD8
BA35
3A85
BADA
3A38
BABD
BA97
B9AB
BAB3
395D
3A07
BA5A
390D
B9CF
BAFA
BA2C
3A42
BA8E
BA1C
B9F7
BB0B
3980
BA84
BA81
3A72
394D
39ED
3B14
3A5E
BA7C
BA47
B925
3A5D
3A27
BAED
3AE3
39A4
B9F1
38BB
3A97
3B11
BAAF
B9CB
BA81
BA43
BA1F
39C0
BA1E
BA25
B981
3AB3
3938
BB0C
3726
3A6A
3A19
BABD
3A38
3A5F
BB02
39AF
BA81
39B8
BA23
3A8E
BAB8
BABC
BA06
39A6
39B9
38EB
3A07
B946
B9D3
B8C0
BB2D
3AA5
3A6E
3AD0
BA16
3A1D
B9DD
B962
BB03
39AC
3A15
38AC
B9CD
3A54
BA64
B9DF
398B
3906
3AB2
BA0D
3A48
B801
3AAB
B9C8
BA94
3A5F
3A79
3A6E
BA50
BA6E
BA69
BA47
B9C8
38B5
BA51
BAC7
BAB6
B98A
3962
39CF
3A89
3B4A
3ABB
BA07
38B2
39FB
B81B
B712
39F5
3B13
39CC
BAC8
BB28
3B21
BA1A
3A32
BA42
3AAD
BA12
B9EF
BA33
BA52
BA66
BA0E
3AAB
39DA
3B53
B9B8
BA88
BAF8
B9CF
BA22
3A70
BA8C
BA8F
3A4D
BA80
B96E
3A7B
BA83
BA63
3A59
BB0A
3A68
BA6A
3A7B
BACB
BAE0
397C
BA90
3A93
395C
3971
3B09
B9FD
BABB
BA3A
B963
3986
39D5
BAD9
395E
3AAA
38E2
B993
BABE
3AB3
3896
BAA7
B866
3AA1
3AD0
B94E
B984
3A04
3A1B
B9BF
3A8A
B8D5
BA03
B9A5
B991
BB2F
BA7D
B9D4
3A12
39F4
3A0E
B9A5
3A35
BA85
3A05
BA66
3AE7
BA52
3ADE
BA86
3A85
3A36
3A90
39D5
3A9E
BAB5
3AC6
3B08
BA79
39AB
BA00
B978
3A0A
3A0D
BA93
39A5
BAB4
3AE7
3980
BAE2
3AF3
3AA9
BA64
39AB
3978
3B2C
3956
3B0F
3B07
BA80
3A0A
BB10
BAB5
BA47
BAD6
B9B5
3808
B97D
BA84
385C
39BA
BA96
BA78
3A8E
3A3B
BA16
39A5
38BC
3AE0
BA5B
3ADE
39E0
BA87
BA3A
3AAF
B9E0
3985
3AFE
BA56
BA80
3AA0
BA80
BA83
BA38
39D4
BAA1
3AC4
BAE9
3811
B974
BA82
BA1D
395F
BAA1
3A0A
398D
390F
BB0E
BB0A
BA9F
B926
3A4B
BA45
BA0E
B9EE
393C
B986
39DD
3A25
3AA1
385A
B7F3
B9F6
3A20
3B17
BA17
B9E5
B9D8
BABB
3A0D
BA1E
BAC4
393F
3A06
3A2A
3AD3
3AB8
3A20
BAA3
B99F
B9F5
BADD
3AC4
BA50
3A92
38BF
39C3
3A39
3989
3A36
3912
397F
BA3C
B8A5
3B09
BA35
BAE9
BA22
3B1E
BAFE
3759
3AA2
B999
3B01
3A30
3AAA
BA43
38EB
393E
386F
3ADA
3A09
3B24
3B21
3942
3AAE
3B0E
B9E1
3A2E
B945
BB18
38B1
BA2B
3A38
B929
B961
B992
3AB2
B9E6
BA88
BA86
3894
3A62
398A
39D7
3AB8
BADB
B8AE
BA44
3A8E
3992
B9C9
B90B
3944
38F4
BA9B
39F3
3B02
BA07
BA92
3A9A
BA8B
B9F4
39D4
39E7
3A25
B8C4
39FC
39A2
3A9C
BA16
BA6E
38B4
BB16
B99E
BAE9
3AA9
39D7
B946
39CD
BABE
BB03
BAC0
BA87
3A33
3AFB
3AD7
3AFF
3AD1
BA86
BA0A
3AF3
BA9C
3B1D
3A63
39AB
B9E0
3A3B
B81E
3967
B8F7
B9CA
39F1
BA0A
BABE
B86F
BA42
3A7D
BA89
3A2A
3AA4
3A85
3AA0
3A86
3A40
BA17
3A8C
3AA9
BA22
3A8C
B91B
BA89
B913
B895
BA3D
3A1C
3927
3917
39B4
3A73
3A28
39F1
BA8D
3AEA
B897
3A2E
3A95
BA48
3A77
39F5
B8EB
3A48
B920
3A9F
B914
B991
BAA2
3A2C
BA45
3990
BA18
3940
3B19
BA3C
B8B8
39DF
39A6
3A3A
B9E1
B9E2
3A24
BA8D
3A3A
BA4E
B77A
BA78
3A3D
B943
3A81
BAB1
BAC4
BA44
391C
BAD7
BA32
B990
39F2
39EA
3A54
BA90
B9F1
3AD8
3ACA
BA08
B965
3ABE
3A59
B9F1
B909
3A16
BA66
3A8E
3888
3A30
3A02
BA86
3A21
3A52
BA0A
BA3B
3A07
3A8B
BADF
3A2E
BA65
3B09
BA62
BA2B
3ADF
BB46
3797
BADD
B9BE
B919
3A3A
3A34
392D
3ACA
3A15
3A0F
BA1E
BA7B
390B
BA9B
B9BF
3AF9
3A99
B89F
B9E8
B841
3991
3A32
BA09
BA4C
38FA
B9D1
3A54
BA8C
BABC
BACA
3A8C
BA7E
3AF7
3ABF
3A89
3A66
3A02
B928
3A56
BA4C
B99E
BA3A
BA0F
38EF
3925
3A88
3B0A
3AC1
3AA6
3A18
B956
B7D4
3ABB
39AF
B987
3A6E
3A6E
3AF0
3A86
B999
BA2D
B9AA
BA39
B8DF
B994
B8DD
B955
BA55
BA89
39F6
B9AF
3A21
B9A9
BA68
3984
B9D1
3905
B985
3A00
3B0F
3B07
BB1F
B9A5
BA12
3991
B9B6
B9D8
BA9B
3A3A
3A46
3AA4
BACD
BA88
B9C1
3938
B888
BAA7
B928
B9ED
B9D1
3AFE
3A12
378A
B99C
3AD9
39D6
B91F
BADE
BAF4
B992
BA00
B7BA
3922
BA11
BACF
BAC3
3A36
B9C3
3B0B
BAE1
3A66
B82E
3A0F
BAC4
3A4D
3AD9
391C
39EF
BA66
3A77
BA19
BAF1
3AB1
3998
BA5D
3A05
3A97
BA8F
B72A
3955
3AC8
39C3
BA42
B97D
B998
B98C
39DA
BABB
B9B5
BAB2
BA4B
BA85
BA8C
39BE
3842
B9A9
3AE8
3A42
39D7
B93D
3B0D
BA60
3897
B994
3900
3A6C
B986
3AA7
394A
3AE2
BB25
BB04
3A1F
3ADB
3A29
BAAE
3AAE
B8E5
BA6F
BAA0
B98D
BA30
BA4E
B97B
3AB4
3857
BA15
3996
3851
3A2B
3A8E
BA15
3951
3A70
BA86
3965
BA4C
3A73
3994
3AC8
3860
3AEF
B93C
B909
3A17
3A8F
3927
3A95
392A
BAC4
3ADE
3AAC
3A6A
B72B
3A88
399E
B999
3A91
BA84
B80B
BA53
3971
39C8
3A88
BA79
BAD8
39AC
BA85
3AD7
B6F4
BA29
3AF3
3955
39BE
BA0A
BA70
BA87
B9EB
B9D9
B9E9
BA79
B81E
BAA8
BA94
BB1E
BA6D
B778
BA2F
3B01
3AFA
38BA
BA0B
3A26
BA13
3964
BA58
B860
BA53
3825
B9E6
BA80
3A8C
BAC3
3938
BA89
BAB9
BA10
BAFA
3990
B983
39C0
B967
39A4
3A20
3A95
38FA
B949
3A49
3AFA
BA2E
3AA3
3A73
BABF
386B
B924
3901
395A
BABE
3A79
3830
BA1B
3A58
3910
BB30
39B8
3A3D
3AA1
396F
BA99
BAAE
BABB
BA46
B955
3B10
3A62
BACE
B9FB
BA09
3A8D
3AF0
BA25
BA30
3822
BA53
BA2B
3A2C
BB03
B8EF
BAD3
B853
39B1
3ABF
BAB7
3A52
B9AD
3ABA
3A32
3A65
BAA7
3AA9
3A8B
B9C4
3AA7
3B36
B966
BAB3
BA69
BA8B
3A09
BA7B
BA0A
B9D8
B9B2
B8C0
3923
BA14
39CA
395A
3A0E
BA6F
3A4B
BA15
BA91
3A61
39D7
3A6B
BA1E
BAB6
3A1B
BAC1
38A6
BA0B
BAEC
3AD3
3B0A
39F3
B8F2
BA8C
3A53
BA80
B9AF
B957
3B0D
39F7
BA5A
3A8B
3A4D
3AB3
BA62
B8C9
BA91
B9B6
BAA0
3AA2
BAC3
BA41
39F5
37E6
BB10
3A91
BA88
BA19
39A2
B9D7
3778
B99D
B968
BA5A
39F9
BAA3
B9D4
3A89
B95A
3A27
3A4D
BA16
B96E
BAA3
3A2F
3AA5
B969
B92C
3A63
BA60
3B0E
BA69
3AF9
B7C4
B90C
390C
BA1F
BAD7
BB0C
3B3E
3A68
3A11
39A8
3B25
3A39
3ACF
3889
3AC5
BAB0
3A71
B55C
3937
B989
3721
3A43
38C0
3ACF
3A84
3691
B881
3906
BACD
B9C2
3A67
BA4E
B8D1
3A69
BAEA
3B26
3A10
BA73
3AD7
3B02
3B26
BA4F
B9DB
BACA
BA5A
3A3E
B860
BA2D
3A31
3A10
BA60
399B
B980
39FC
BA72
BB3F
3A9A
3AB3
B97B
3A01
3A8E
3A0A
BA74
B9AE
B8FA
39D2
3A4F
399A
BA3C
B95A
BA45
BAE9
39DE
3A2B
37C5
B9C2
BA30
38F4
BAC0
BAE3
3832
B9F2
3A45
39FB
BB3B
B9BC
B9B4
BAB8
BA23
BAA7
3A7A
B9B0
BA73
B8B3
3B2F
3A2E
3A3C
3A97
3984
3860
3A45
BA94
3AAF
BA96
BA90
3A07
B9C2
BAA9
B9C8
B8D6
3960
3A39
3A14
39B9
3B1B
3A21
BA86
BA7A
B9A0
B9FF
BB17
3A33
BAA1
396E
BA93
B974
38F1
BA2F
BA11
3B0A
BA10
3920
39E9
39D7
BA9D
B952
3ACD
B8A2
BA09
B948
BA2B
BA8B
B9A2
B983
3AAB
3996
39CD
3908
BAD9
BAA2
3A38
B9AE
3B37
3A61
3A57
BAAC
BA8B
BA8A
B8F4
38B8
3AC3
3A71
BAA0
BA8F
3A01
3B1F
3A26
BB14
BAAD
BA8C
B95A
B8BF
3A2F
398C
3A57
BA00
3929
3ABB
3A43
3A95
B99A
B9D3
39B6
BA86
3998
39CC
B9AD
BAC2
39C3
38D7
3A43
3B04
BAA6
BA5C
39C4
39CE
BA76
BA9A
B88C
3849
BA27
BA3F
B802
3A52
BA5E
3AA6
39E5
3B1E
B80B
BB15
BA08
38F4
BA1F
BA9C
BAA0
BAB2
3B21
3ACE
3A82
B8AB
B911
399C
BA05
3A85
3A95
390A
3A59
B9E2
37AC
3A95
384E
BAAE
BABF
3A5B
3AB2
3A09
3A31
B7F1
BA62
3AE1
B9D9
3B05
3A35
B9BC
BA36
3A1D
399F
BA14
3A53
B9C7
BABC
3987
3B06
BAB5
3ABF
39E1
3A10
B742
3A45
BA0F
BA42
B9C5
B9B0
BA80
3910
3A87
3ACC
BAD7
39C2
3A61
3AA1
BB21
BA2E
B855
B857
39E3
B7E1
BA50
3A42
3A70
3A31
B87A
BA62
3A46
39C7
BAD7
BA5E
3A62
BA10
B9EA
3A03
B90D
3A81
B91C
BA82
3832
BA86
BAA6
BAF2
BAA8
39C0
B997
39CA
B940
B9BC
3A4D
BA61
BA37
3A87
B9A5
BA80
B708
38B7
3AE1
3931
3A8E
BA98
3A90
3A43
3A07
B9EC
3AEB
3A87
BA55
3AB4
38BB
3A8E
BAED
BAA4
3A81
BA67
BAA7
39F9
398B
BA2F
3A1A
3A18
BAAF
3A23
3761
39CD
BA81
B8CC
3A01
39B5
3ABB
3980
39A1
BABB
BA83
3A2F
B9E3
3A4C
B646
3A8E
B787
B992
3A77
3B0A
38AF
3A3D
39A5
3AAB
3975
3A9D
BA0B
3A30
39B8
3B26
B9EF
3A56
BAC6
B992
B9B0
BB06
BAF0
3AE2
3768
BA1F
BA63
BA68
3AA7
BAB2
B94A
BA91
3AA1
3AB5
BAB0
3AFE
3AA9
38E5
39B5
3ABF
BA9B
399F
3A4B
3A1E
39AC
3A38
3A73
3AC7
3A7F
B8C9
BAA3
3946
B9A8
3849
BA7F
BA96
3B05
3A5D
3A26
BA83
B9E8
3AE1
3A66
3AA8
B87A
BA5F
B884
B996
BA12
BA84
3A06
B9BA
BAAF
BAA7
BA44
39D2
BAF9
3A25
BA7C
3A55
3A4D
BABE
3A5B
B9BC
BA03
B92F
B8BF
BA64
3A52
3A2C
BA35
38FD
39CD
3A85
3936
BB08
3946
3A3D
3A8C
B9BA
39BE
3AB4
395F
3A1C
39C7
398E
3A90
3A22
3AF3
BA5B
BAA2
BA3D
3985
3986
3B2A
BA8F
BA8A
BA81
3A2D
B9A3
3A91
3A62
B9C9
3A2E
3A5F
BA53
B928
B975
388E
BAAD
3987
3987
3959
3A25
3A38
3A40
BAB0
BA64
3A96
BA1D
3A18
BAC4
BAA6
BA57
BA3F
3B17
B9AF
BA48
3978
3AF6
3A2E
392C
3A0A
3A02
B98F
3AF7
BA90
B8F1
B912
3A6C
3A58
39D0
3A11
B925
3AD6
BA85
B92D
BA82
3A4A
BA2B
3A39
3B1D
B9A5
B9E5
3870
3ACE
393D
BA5C
BA6D
3942
39B9
3AB7
B9C2
B98A
39E9
3A67
BAD3
BACB
BACC
B916
3A85
B9A0
3919
B9CC
3935
BA5E
3A42
3AE1
BA97
39DA
3981
39E9
3982
BAAD
3A17
3A83
3A48
3A82
3A06
BA0D
B99B
BAB7
BAEB
3A6A
BA61
3A2E
3B17
3842
3753
3A51
B903
BA6A
38D9
3814
3A13
BA08
BA66
BA4A
BADE
3A54
3AAD
3A9D
3A57
B765
3A3A
BB03
39BE
3A11
3AAC
BB30
3A99
BAC3
B8FA
BAC6
B94F
B9D1
3A6D
3A15
BA05
3A46
B97D
B8D8
BB7C
BA48
3A87
BA61
3A70
BB1C
3A37
BAC6
B97D
3A06
B939
39D3
39D0
3A94
3A8D
BA31
3A5E
BA1C
BA25
BA8F
B9A6
BABC
3A19
3A60
3A6D
BA00
3AC2
3A1D
B9C0
3A96
BA43
BA7B
3A4D
B916
BA7E
BA5B
B91B
BA7F
BA12
38A8
BAF3
39C3
3ACB
39D3
BA90
BA64
BA8A
3A59
BA42
3972
3AEB
B91F
3A35
3A0B
3A2D
3AAC
3A01
3924
BA62
3A07
BA85
3B02
39E2
39A5
B92F
38B9
B9DC
3A00
BABD
BA87
BA31
BA9A
3A24
38DD
3ADB
3A54
BB19
3A0B
BA55
3ACA
39F4
BAA6
BA4D
BA9B
BAED
3A90
B9C2
3A0F
3A6D
3A04
B892
3A84
BA35
3A47
BA75
BA8D
B9E2
3AA0
3AA0
BA01
B982
3A88
3B0C
BA73
3A2B
B96B
BA9E
B8C3
3AE4
39DB
BA25
BB07
BA32
38F9
394C
B8B3
3A99
393C
BAA0
B94B
399D
3A80
3A38
B843
BAB3
39B3
B89D
BA26
B99C
3A60
3A40
3A10
390D
3ADF
3A8C
3A09
BA49
B9B3
3994
3935
3A15
3939
3ADD
3A47
3A94
B9E4
B9D7
B8AE
3939
3A04
BAFD
BA0C
3AB5
3A09
37BC
3994
3A96
3AE2
3932
3888
BA43
3A9E
BA80
3A19
B91C
39BE
3A6E
BA91
3964
39CE
37F9
39E4
BA8D
BA37
BAEE
B959
3A70
3A0F
39B8
BB1E
3A2C
38CA
BA43
BA8F
3A56
3AB3
BA90
B9D0
B71D
BA0D
BAF8
B842
39B7
38EF
B99E
BA8D
3AF8
BA4C
BA0D
3ACB
3865
3A2F
BB05
BA36
B9C6
B996
3AAC
3A6F
BA50
3A84
BABB
BA81
39CB
3A57
B97F
B8DB
B5BE
BA74
3A48
BA2C
39D6
BA83
39FE
B931
BB24
3989
B89A
BA09
BAD5
3A01
3A2C
BA5C
BAD7
3AA7
390A
B957
BAF8
B988
BA21
B9FD
39F3
38C2
3992
3A84
3A07
BA7D
BB07
BA26
BA25
B901
BA4C
BA72
BA7C
39AA
B7A2
39A8
3AA3
B8A0
3A13
B952
BB49
3AFA
372D
3AF1
38FD
BA96
3A17
39C5
B8C2
B9F5
BA70
BAB4
BAB1
3A8F
BA51
378D
B7FD
BADB
B9A7
39C9
3A13
BAF5
BA7D
3AB9
BA29
BA63
3A6E
B926
391D
3A0C
B923
B996
B9AA
3901
3A6B
BAD1
3B86
39A3
B9FE
3A45
390F
3A3E
3B07
BB06
BAA6
BABC
3AA1
BAD0
3891
B9DE
BA95
3A80
BA49
3B1D
BA15
BA02
3AB8
3A62
BA8F
3B66
B8F9
3883
3A3A
3A82
3A25
BA9E
3A89
3A35
3A9D
3A20
BAB5
B9A8
399D
BA71
B9EB
39C7
BAA2
3AC7
BA2C
3A57
3916
3A09
BAB1
B971
3A81
BABE
3899
3A41
B91C
BA48
38AC
B93E
BAB2
BA95
BAED
3A12
BA30
3A57
B798
BAA1
3A9C
B9B5
B885
BAD0
B9B1
BABB
3A8D
3A7C
BA4C
3A37
3A2B
3A81
3AE0
B98B
3902
3A90
B9F7
39C9
BAE5
BA83
BAC1
38F7
3A81
BA9C
B9B3
BA82
3A92
BAA3
BB0A
3AB5
B93B
39E1
BAC7
B9BF
B887
BA29
3A4F
BAF4
BA4F
388A
39AD
BAB5
B9BD
B98E
B9A5
B9C8
BA07
BAB4
3969
B8DE
B9E8
BA0E
B9DB
3B15
3A9C
B9A9
3AE6
3AA1
BA17
3AC5
BAAD
BA65
3A76
39E3
BA6F
39A1
BA28
396F
BA8C
B90F
3770
3974
3A3F
398B
BAF9
39CF
B9EA
3A63
B899
39ED
BAC1
3AF4
389B
3A1F
B9D8
BA1F
3A0E
BB1E
BAB3
3A94
BAE9
3B04
3B0A
3A78
3A37
B7E7
3AB2
B941
BAC3
BA0E
393B
3A50
3918
B8DE
BA9B
3A10
394C
BA6D
39C4
3A1E
3ADA
BA74
BA8D
BA7D
BA11
3922
B97D
BA9C
3A2C
BAF3
39B9
BA64
BA00
3A8A
39B7
BAA9
BA45
3AB6
3941
3A0E
3A78
BAA2
3A58
395A
3A5E
B92F
3A3B
BA8F
391A
3886
3AA3
BB07
BA46
BA92
BA85
BAA1
3A5B
3A45
B8D2
3B17
B997
3A66
B841
3971
3A2E
3B05
BABD
B8AD
B9BF
BAB3
3A36
3903
3926
BA4B
BB17
39ED
3A2D
B987
3A1B
B95A
3A28
BA75
BA6A
BAB2
B734
3A1C
3A12
3832
B968
39D0
3A87
BA35
39E0
3A6B
BA71
B9D4
3AD8
3AE8
399C
BA26
B9FE
3AC3
399D
BAA0
3918
3865
3A39
BA03
BA92
B9A4
3AC8
B9F6
3B15
BA45
3ACD
3A5D
3960
BA9D
3AE1
3ADE
B8F9
B968
39A4
BA05
381E
BAD7
3A29
BAAC
3AE2
BA3B
384E
B8C5
3AA6
39F4
38FA
3A08
B86B
BB0A
BABD
B789
BA18
BA80
3AA0
3B03
390E
3995
BA82
3952
BA0D
B90D
BABC
BA4A
BB03
B952
BA59
BB5E
3A05
3A5D
B897
3907
3AB8
BA58
3B11
3A7F
3AC8
3A9B
3AE0
BA7E
3A46
3A5D
B891
BAB7
B946
BACE
3B23
39CA
3A4A
BA6B
B98D
B9AF
3A24
3A99
B6DE
3AD5
3A73
3A8B
BA19
BA32
3AF5
3A3D
3A29
39CD
BA05
3A0E
398E
BA1B
3A5F
3ACE
BA78
BAF0
3B1D
BA00
BA35
B951
3ABC
B8F4
B86B
39CB
BAB7
3A3E
BA9E
BA88
3AE0
BA37
B8FC
3A9F
B961
BB00
B9A4
3AAB
3AD8
B900
3A0F
39F5
B8FB
BA58
3A48
B9BB
BACE
3931
BAE3
39B3
3A82
BA8C
3958
BB37
B910
BB28
3967
38CA
B80A
B953
3A21
B7C5
3942
3B0B
BA04
3A81
3A8A
39AF
BB08
3A89
B8FA
BABA
3A80
3A15
B8D4
BAB2
37AB
BABC
38C6
BA94
3AE8
BABB
3A01
B957
BA52
3AA1
BAAF
BA2E
3A8A
BA1B
3A35
BAB6
3A3B
3A64
3A2D
3A87
BA95
3A5B
BA4C
BA85
BA85
3687
B992
3AE3
BB13
BAEA
B9FC
39CE
B911
BA3F
B7A8
3A0F
3A9E
B96D
3A69
38D8
399A
BA91
3A35
3A92
3882
390A
BAC9
38A6
37DC
B9D4
3A9B
3A24
38B8
BA35
BA00
39B4
B8E9
3AEA
BA1A
B93F
B97F
B9A4
3A63
BA90
B8F5
BABD
3978
BA87
BA6A
BAA5
3924
BA31
3A20
3AAF
B998
B8C7
B82F
BA7E
3916
BAC1
BB1B
B9D3
BA8E
B8B9
BA69
39E8
3AB4
B905
BAE1
BA80
B910
3A07
BB2A
3A0D
3A40
BA75
39DD
383E
3729
BA1C
BA6A
B9A7
B9AF
38AE
3AA4
38E7
BAC0
BAD5
B923
3ADA
BAC2
39B0
3A41
3A4D
BAA2
B9A0
BA6B
3A59
B9BE
BAE0
3A0D
3952
39AB
3A81
BAB4
BA90
B8D8
3ABC
BA8A
BA04
3AC5
B9B7
39FE
39B7
B8DF
3A35
B85E
3A1C
38B5
3913
3990
396C
B7BD
3ACB
BAB7
BA11
B9F2
3940
B9DA
BA41
3AD7
BAA3
B9DA
BA31
3AD8
BB40
BAA4
3997
BA19
B9E2
3B08
3A4E
3978
39DA
BA94
3A19
BA33
BA8E
BA9A
B870
3A55
B9A0
BA90
3A81
3AA1
B989
B698
3A0F
3AB0
3ABA
3A13
3A40
BADC
39BC
BA85
B9DF
3899
BA84
B98A
3A0C
BA5D
3930
392E
BA42
B987
B8B9
B86A
3A37
3ADE
3A2E
BAC6
3A97
B92E
39B2
3A7D
3A17
BA17
BA80
BA78
BA92
3ABE
BA99
BB20
BAEC
BA6C
3946
3A49
B9D9
3A10
B8B6
381D
39B2
387B
BADF
B7A0
3A36
3A7B
BA23
3A19
B9B0
BA9F
3A52
3A7C
3ACE
B9D2
3A32
B8DA
B9CA
BA8F
3A60
3AF3
3AA2
3ADB
3916
3A57
B9BA
BA41
BA46
3A96
3A43
B9FF
3AA5
B80F
3A86
3A19
3A22
3A6C
3970
BAD4
39D8
B936
BAE2
3A31
391E
39CA
3AD2
39C3
B8C5
BA2A
BA85
BA69
3ACA
BA0C
B9AD
B99E
3A3F
B987
39E5
3A04
BA13
B9CF
B9D6
3A58
3AB3
BAC4
3A6E
B8CF
BA0E
BADC
39BD
BA3F
BA26
3AD1
B9EF
3A69
3A5D
396A
B9E9
39C2
B9DB
BA0B
3A27
BA1D
B9E0
3B0A
B9D8
3A58
3A20
3ADB
B9A7
3AE0
B85E
39D7
B8B5
BA6C
3AB2
3A84
39A5
BAD0
BAC9
B999
B884
39A5
BA9D
B9EE
B918
B7D5
3A69
3A6C
3A86
39CA
BA3A
BB13
38D3
3992
BA13
BA3D
BA18
BAB9
3990
BA6C
BA40
BA61
BA01
38B9
B9B7
3924
389A
3ACF
3A89
39D8
39FC
37F5
BA44
39D6
3A69
BA85
3AC5
B904
BAB4
3AC0
BA60
BA7E
3A91
BA59
B9DE
3990
3A92
B9BD
3AF1
B9DE
383B
3993
B98E
BA09
B7F0
BA42
3815
3A94
3A64
3997
3ACF
BB0B
BAF9
3AD3
BB0D
39CA
BA17
BA63
39B1
BA8F
3A41
3A1B
3A95
BAA1
B922
3A97
BA63
BA31
387C
BA4E
B9EC
3B18
3AA0
B9CB
3A91
3A85
39E4
3AD1
B986
3A81
3A9F
3A51
3A3C
3AE5
B94E
BAE1
388B
39F3
3AD2
3A26
B78F
3AE6
39EB
3A37
3AA4
BA35
3A21
3A53
3A45
BA22
BA33
3A66
3A4E
3B08
3A36
BA71
3A6B
392F
3ADC
BAA2
39EB
3A95
39AE
BA21
3A48
BA23
3A78
BAE1
BAA5
3A2A
BA1B
BA29
BAF9
B98D
BA9C
3A85
BA8C
BA53
3A1C
3B0B
3801
BA52
B8EE
3A1E
3A9C
3A98
BA51
3A5F
399E
3B36
BA36
3A42
3A69
BADC
3A52
BB57
3966
BB24
394C
3A25
BA84
B9E5
39FF
3AE4
B895
B9FC
3B15
3AA9
BA90
3A34
BAC9
3A79
39A7
3A85
B9FE
3A9E
3A51
BB1F
3756
3A82
3AED
B7E4
BAA4
39B3
B910
BAF3
3A40
BB02
3A3E
BA48
BA13
39C8
BABE
3A9E
B925
BB14
BA39
B99F
3AD7
BA9D
B958
B916
3A07
B9AC
BA2F
BA6F
3A47
3A26
BA6B
BA82
3AA5
BA32
BA9C
3A07
B8F1
B9C5
BB20
BA57
3A4B
BA81
BA8F
3A55
BA31
BA3F
3AE7
37A8
BAB4
BA82
B980
3A7D
3AB9
392E
3A49
BA48
BA12
BACC
BAC8
3B00
3ABE
39E9
3A5A
3B03
3906
BA7C
38A8
BB14
37D3
BB04
BA71
38CD
B902
BA89
BB0E
3A4D
B9FB
38EF
3A1C
BA40
BA9D
391A
384B
39E4
BB02
3918
B906
BAEB
B8AC
BAE6
36CD
BAA3
BA5F
BA35
B970
39DD
B969
B9A8
BA62
B932
3A58
3B02
3930
3AF5
BA1B
3973
3A12
B996
BA30
BADD
38A4
3AB5
BAC0
BA20
3A10
3AC7
3A5D
BA02
BA44
BB2E
3A3D
39A3
BAC5
B931
BA28
3A98
3A00
BAAF
3B01
3A14
3A6C
B9F5
3A14
3A4B
B88B
3A54
3984
BA87
37CD
BABC
3998
3A89
3961
BA7D
390E
BAC8
37E3
BA8B
B9AA
39B2
B9BB
B9DD
39DD
3AB6
3B16
38C8
3988
BA7B
B993
3A1A
BA0F
BA94
BA80
3AEC
3A3E
3AAE
3860
BA80
B875
BA65
3B37
B9D7
39AA
3A28
39C3
39BA
BAAF
39DA
B9B4
BAA6
3A66
BAE1
BA33
3A89
3A8C
3A00
B96D
BA95
BAE8
3A99
B96C
BA4F
399B
399A
B983
B755
BA06
BA9E
B9EB
3B0F
3A83
3A21
3A6C
BA67
36D6
3ABA
3A8E
BB1C
37B1
39C0
39AB
3AB0
B970
38AA
BADE
3ADC
BA70
B984
B82E
3946
3A31
B9A8
B777
3A5E
BA36
B95D
B89A
3A11
BA87
3962
BA86
B9AC
BA9B
BA8E
3A7C
3A6E
3B0A
B910
3AD3
39E0
B9E6
3AA6
BB00
BAB1
3A13
BA7C
B819
39D4
BAAB
3976
39BF
3A4D
B985
3B29
399A
3A12
3912
39FE
3957
B920
BA39
3A4A
39E3
3ABF
B9FE
B976
3AB9
38C7
B9F6
B8D7
BB02
3A37
B9D0
3AB7
BA87
3A5B
3AA8
3A59
39AD
BAD5
3A10
B891
3919
BAD1
BA9E
3ABE
39B5
39BE
B9D3
39DA
3ABA
BAC2
B912
BA67
3AA1
BAAD
B975
BA8F
3A64
39E1
B732
3A67
3A84
BA8A
B955
3A64
3AEB
BA8D
39A2
BA95
BADF
3A43
B95D
3AA3
3A4B
392C
3887
BB03
391A
BA1E
397F
BA92
3AA7
3A34
3B15
3A82
BA11
BAE6
B9F0
3AF4
3A91
399E
37AD
B92B
3946
BB04
BAD6
BA88
BAF3
3A8D
3A58
3AC6
36EB
BA8C
399F
3A8C
3ACE
BB04
BA71
3B3B
BA27
37CC
B9DE
B98B
3AA5
3ACE
B9E9
B671
B96C
B9BE
3A45
39E9
B9A4
3A50
B9A6
BAD5
3A19
B9CB
BACA
B9E5
3A85
39AE
BA75
3A0A
3A33
B91B
B992
3860
399A
B9F9
B867
3880
3B2F
3994
3A25
3A08
3AB5
3B23
B9E7
BB15
3A0C
BA1E
B988
3A02
BAE7
B80C
3AA9
3ADE
39ED
382C
3A3B
BA82
B9CD
3A2B
3A88
B923
B9B2
BA08
3AAE
BB71
BAA6
3A4F
B9B0
3A22
3ACA
3A41
39DB
B9F3
BA81
BAB6
3A2E
BA86
BAB8
B92C
BA1D
3AED
396D
B970
3927
3A86
3A94
397C
BA62
3A89
B988
39F0
3A87
3A36
B9E9
391A
3A60
BA7A
B982
BA53
BA0D
BA98
BAA4
3A52
3A39
B9D7
BA47
38A6
3A51
39D2
3AC1
3A7C
3B3A
BA11
3A3E
3A75
3AB2
3979
BA03
BA9A
39A9
B938
3A86
3A0F
3AD6
3AB3
BA31
B7CD
BA20
BAD0
BAAD
BA1D
B77E
395D
3AEF
3A2B
B8CB
3ACC
B9E8
3A70
BABC
3AA1
BA49
B7B0
BA6D
BAD5
BA85
BB15
3A45
BA4A
3A2C
3A1E
35E2
3A94
B950
3A14
3990
B7D9
3A81
BAD7
B9C3
3A26
397D
3A8F
3948
399E
BA8A
3A46
3A0D
B8CC
3A1B
3993
3A96
3B33
3ACC
BADD
BAE2
B83F
39C7
3A19
38E9
39AA
3915
BA6A
BA69
37CB
3AE6
BADA
BA60
3A4B
BA82
3ABC
B9DF
BA65
B9E4
39D8
BA84
3747
BAC2
3A0D
3A35
37EF
3936
3A21
3919
BB3C
BA6B
BA26
3A15
BA60
B907
BA2C
3A83
B89E
BAD6
B9F3
3A09
BB26
BA2D
B9F8
B924
3940
3A76
37E3
3A27
3A66
BA14
38FA
3A0B
39FE
3A90
BA86
BADB
3ACD
3939
BAC4
BA75
3B02
3ADB
3A05
3A00
B9BE
B919
3B07
3AF6
3AC4
3A16
3AC1
3A0D
BA29
B9DE
BA15
BAA0
39BD
39CF
3A23
B906
BA40
BAEC
3B0B
BA83
BA3B
3921
3A8C
BA02
390E
3A50
3A08
39D2
3A6E
BA29
39B2
BA55
BA9B
3A8D
3A82
BB0D
BB26
38EF
3A79
3ADA
3AB0
3AD2
3A33
3ACB
3AE5
BA77
BA13
B93F
BA7E
38F3
B935
3A95
3A26
395F
3A43
3AF7
392E
B9BC
39E2
3A1C
38BB
BA05
39AB
3A36
3B0C
395E
39AA
B820
B915
BB0A
B8E5
3B35
BA06
3A4D
3AAF
BA5C
BA6C
B8BA
BA8C
B985
3A33
3A0D
BAE4
39BB
3A10
BA60
BB27
3A56
3B12
B8BD
BA87
3A6C
3B11
B8EE
B982
3A3E
B9A6
3A54
BA9D
3AA2
3A87
BA86
3A8C
39E8
BA07
3A52
3A07
BA0C
BA5C
39FC
B9AA
B8C7
3851
3A9F
3A94
3AB8
B932
3A33
3A07
3A66
B924
3A7F
B9BE
3A28
385D
BAC5
B838
3ABA
3AB6
BA58
BA8B
B99C
3AE4
3A2A
B800
BA21
BADF
3A5C
3A8F
BA31
B958
3B02
BA06
B86C
380F
39E7
BAD3
3A88
B93F
B977
3926
3A12
3A5E
3A14
3AB6
B892
BA84
393D
3AB4
BA41
3B21
3A97
3A93
3933
3A91
396E
3952
3A36
BA5F
B8B8
BB57
B921
3996
3893
3922
39AE
399F
39FB
BA92
39DA
39CA
3A62
B9F2
3A3A
BA9C
390F
BA09
3ACA
BAAA
3AB8
BA97
3A41
BA29
BA2F
B970
38DC
37E9
3B22
3A29
38AC
3B10
3A14
B995
B9B8
3A83
B885
BA20
395D
BADC
BA38
BA8F
3A3B
BA44
3A5F
B97C
BA5A
3AE7
3B07
BB20
3A7D
BAC9
3A03
38BF
3A9D
BAA1
363D
B9B6
3A3F
3A11
3A2F
BA49
3AC5
B960
3AE0
B93A
BAC8
BA82
3A8D
3ACF
3A82
BACD
3A1C
BA4D
B982
3AC9
BA20
B87F
BA1D
BA5B
3A10
3A27
BA15
BA07
BABC
B9C3
B9EE
B9BD
3AC3
3961
B8C8
3A0D
BA88
39DB
3A0D
3988
B9DA
3AEA
BA1F
3AB8
BABD
B8D8
BA14
B9D7
3AF6
3A38
BADA
3AF3
3AB8
3934
BA27
3AA7
3AAE
B7CE
3AB0
3A51
3A3F
395B
BA3E
BA3F
BB12
3902
3A41
3A66
3A24
3AC4
38D6
39B1
BA5A
3B25
3AFB
B9C9
BA5C
39D5
BAEA
BAAF
BA9F
B874
3A68
375C
3A5F
BB02
3AA5
B9E3
B983
3B28
BA42
39F6
BA04
BA9F
BA34
386C
3AF5
BA01
B8D4
39A0
3A97
BAC9
39DE
3930
3A1F
B98B
BA37
3A8D
3A41
BA7A
3A2C
3A40
BA31
B898
3984
3672
B9B7
3A5B
B9D2
3A5F
3A28
BA95
3A29
3859
3A15
3A01
3A91
3A30
B773
B86B
B78A
3AB1
37D3
BA02
BA3E
3A1C
3A1E
38AA
3ACE
B795
3A09
B950
38BC
3A46
B710
3A25
39B3
BA0F
38F4
BA87
B916
B8F3
BADA
B92D
398B
BAA5
BA1F
B9BE
B97E
B907
B818
3A4A
BA14
3ADA
3A14
3A08
3A06
3934
B996
BACC
BA24
3A5D
3A4B
B9A6
B9BC
B9DE
BB1A
BA0D
3A83
B84C
BABA
3ABD
3B14
396D
3B04
3A3F
3A20
BABF
3A1C
3992
BA17
3953
397B
3A37
B9E1
3ADB
BA8E
B9C8
38F2
3A64
3A9F
B9D1
3AE0
BA07
39B2
3A54
3AAF
B91E
3A83
3AD3
BA42
3AA2
39E3
36CF
3A11
BB0F
B853
3B0F
38FC
BB18
BA93
B945
3963
39DD
39BC
B888
B953
396F
BAD1
BAEF
3B0B
BA8F
B9A2
39F2
BA0B
3A6D
B986
3AF7
B909
BA20
3975
3A3E
B9BC
3A3B
3B16
3A73
BAE5
B9AB
BA8F
BA04
3985
3A40
3AD0
BA20
3B07
3A4B
B8E0
B881
BABD
3AB9
3A7F
B9A1
BA81
3ABC
3A01
B9A9
BAB8
3AA4
BA35
39EB
B9C5
B95C
B9AD
BADC
BA31
BAAA
BA62
39A0
3A9D
385D
3AA0
B9A2
B6E6
BA10
3A9C
BA53
BA0A
BA8A
3A37
BAED
BA33
3A12
B936
3A68
3748
B9C9
398E
38FB
37FD
39D0
B987
BACB
BA4B
BA79
39AD
BAA4
3A2E
B989
3ACC
B980
399E
BA36
BB13
3A1E
BAB4
B7EE
3B05
B9CE
3A6B
3A59
3A81
B959
3A54
BAEB
B8B1
3A6C
BA3A
3A0E
3A57
3AEB
BA24
B93F
BA0B
BAB1
3A27
397A
B996
BA99
B95F
39F8
B9A7
39F3
3A33
399F
3AE9
3A3A
BA0F
3841
B9E8
3905
37DF
3A3C
BAAC
38C4
3A8A
39EB
3A2F
395F
B9EB
3AA4
BA31
38ED
B9B2
3A02
392B
3A17
3B18
392D
3A08
BA19
3A7E
B92E
BA9D
BA47
B891
3B01
BA6F
BAAA
39D2
BAC2
3A82
39D0
BB07
BA8F
BA8C
B81B
B89C
391E
39BB
3A83
B77B
3AD0
BAE6
B9CB
BB07
BA88
B80C
BA96
3878
BAC4
BAE4
BA50
3A9D
3A16
BABE
3A95
BA8A
3A9D
B82D
BAE9
B9E8
B9A3
BA9A
B9F1
39D7
B9DC
3A64
3AF2
BADD
B945
BA02
3AEE
B94D
39A2
B9D2
B9C9
3893
3AF3
3AD9
39C3
BA3C
3B18
38BA
3A07
BA2B
B9F0
39DD
BA3E
3A4D
B99B
3987
3A1E
B914
3A1D
3892
B984
3AF2
37C6
BA21
3A7F
3961
3928
3915
B96C
364B
BA0A
3A46
B900
BA76
BAEF
BA47
B941
3AC1
39FF
3AA6
B989
3AD9
BA2D
3ABB
BA52
3A03
BADC
3AAA
BADB
3AC6
BA20
3AC8
39C5
BA8A
3A2C
BA32
BA58
B933
B9AA
3AA0
3A6C
B940
B90D
39E7
3A0A
3A0E
BA09
3A21
B989
3994
39C1
B95B
BA5A
3AC5
BAEE
BA99
39E3
3A83
BA1A
38A4
B9CD
B9F9
38C4
B938
B9CE
BA82
BAA6
3AC0
BA0D
3ABE
3A6E
B9BA
3A26
3ACA
39B6
396B
39A2
BA2D
3A9B
B7F4
BAB8
3AC5
3A9B
BA9D
BA8F
BB28
BACA
39CE
BA99
BABE
3938
BA70
B9F9
BACB
3ABE
BAE7
3A80
BA35
BA87
3A82
BB03
3A91
3AAA
BA2F
BA43
BA24
3A9D
3A6F
3ACC
BA42
B9CE
BAC0
BAE7
3A6B
BA64
3A94
BAAB
3986
3A15
399F
B910
380B
B811
3A1B
397C
3AB9
B878
BA3F
395A
3AB4
B67D
3A33
3A43
3A0A
BA24
BA1C
3918
BB0B
3AA9
BA15
BA06
BAD8
3A31
391A
B99F
BA55
BA7C
BAC1
BAA0
B9EB
3A1B
3932
3ADA
3AAE
BA69
396F
BA8B
BA20
B945
3994
3A29
3A83
BA86
B868
3A6D
3A73
39D6
B9D7
B6B3
3A38
386C
BA5B
BA25
3A1F
3847
3ACC
B916
BA02
3A18
BA06
BA57
BA2E
BA5E
3981
38BF
3AC8
3AA0
BA51
3ACE
B782
B9CC
BABC
BA36
3A73
BA8D
3A4A
B93B
3A8E
3A81
3A4C
3ABF
BA13
3A8B
BA5B
3A8B
39F9
3808
3A03
BA6F
39BF
3A58
BA61
B8A2
BAE5
3A26
B9BC
BA50
B972
38B4
BB08
3AD1
3A84
B95C
B8D4
39CD
3AB3
B9FB
B780
BA06
3A03
B8AB
B845
3A2E
BA62
B932
3A69
BAAC
39FE
BA20
B921
3AF6
BA98
39D6
B9D7
39A3
B9BF
39B4
3A83
3A97
3A78
BA19
3A24
3A43
3988
B99A
B9AB
BA3B
39F8
BAB4
BAFB
B995
B805
BB30
39E1
B935
39B2
B9CB
3888
BA8B
3A89
B8D7
3A1D
BA8E
B9FE
3827
BA8D
BAB4
BAF0
BA70
3A59
B9B5
39FE
39D1
BA06
3A2E
BB17
3913
B9AF
3A90
B930
39B9
BA8B
3A2F
B9D5
3910
B8EB
399D
3A68
BA4C
3AA2
BAA5
39FA
BA87
B938
3A99
39EA
3AF0
BAF5
B9A9
39DB
3A9D
B861
39E6
B96C
3A21
BAB4
B9A7
B9BD
B942
38E3
3AED
BB07
39FB
39BE
BAA1
390D
BB23
38FC
3AEE
3A2F
BA71
3917
BA73
38E9
394F
3AB9
B9A7
BADA
BAB0
3A9B
3A0F
394D
BA32
BA5E
BA85
B977
3AD8
BA2C
399A
3970
39D1
3AA5
BA23
39DB
3A73
BA9B
BA40
3A00
B994
3A21
39AA
BA99
3B13
B953
3A24
B9BB
BA03
B9B0
3828
3AC9
B9F4
3A22
3A63
BA62
396B
B9B6
B8C1
3A2E
B916
B8E2
39C8
BAA9
BA9D
B9CE
3939
39B1
3A83
3A53
3A5B
BA88
3ABD
3A66
3902
BA8D
3A9E
39E0
BA7F
3884
B97C
3AF5
BA3B
3AA1
3ACB
3A0D
3B06
BA75
BA23
3A97
3886
BA7B
BA6A
3993
B895
B92A
BA68
3AE1
B9BD
B97A
B9FC
38C1
BA85
B9BC
B909
BACD
3905
BAD2
BA7C
3ADF
3A5B
BA8D
BA0E
B9E1
3A31
B9BF
B9DD
3925
BA64
39E8
B916
3AB2
B8F2
3A21
BA00
BA4B
BA5B
3A8A
3960
BA59
BABD
396B
B9E1
BA8A
3A87
BA87
B902
3924
B9AF
39E4
BA7F
39BD
BA96
BAF9
37B1
BADD
B973
B9B5
3A92
3B25
BA37
3752
3AE4
3A12
B8FF
3A80
3A4D
BB02
3A13
B8EB
3A1B
3AA6
3A99
3A03
3A2B
BA8F
B9B1
BA57
B99C
BA5E
BAEA
BA72
3A66
3A0C
3A96
3B06
BA89
BA1F
BA72
3A2C
3A86
BA00
BA55
B9E1
BA8E
BAB1
BA90
BA36
B9C6
3A7B
BA25
BAEE
BA81
B7DB
3A51
3A3E
39C2
3A17
BA32
388A
B9E5
3A62
3A63
B9C5
3911
BA7F
3AAC
39A1
BA53
3929
3A93
3A8E
3A23
3B2A
B96A
3A05
BAAB
BA1B
BB1A
3A27
3A8A
B88A
BA39
B8F9
B94A
39E5
BAFE
BA0A
39EA
B893
3A88
BA07
BB37
3A35
3B13
3AAE
3A35
3A8D
3AA8
BAC5
BA24
3995
3A3C
3918
BA8E
B9F6
3909
3AA9
3A9D
BA9D
3AA6
3A34
BACB
3911
3A57
3A5A
3ACE
3AA5
39ED
BA52
3956
3939
BAD4
3A00
BA19
3A1C
B906
BA7D
3ABC
BB01
BA81
3A01
3A2D
BA6C
3A81
BABD
3ABF
3A5C
BA0A
BA1F
3A1B
B702
B928
BA3D
39E0
38CE
BA94
BABB
3A5B
3AA6
B9CC
BA13
B9B7
3A8D
BB01
BA1A
3858
BABC
3A55
B9DF
399D
38E9
3A18
BA9A
BA07
3AA8
3674
3A82
BAA2
3A2B
B9DE
BA7E
3900
3ABE
B9B8
BAAC
B96D
3A85
B9ED
3A8D
3A8E
3ABF
BA82
B977
3ACF
B90B
BA4B
BA84
B9E2
B937
BA5C
B9A5
3914
3A23
B9FA
BA84
3A07
3A3C
3A29
3A52
BA79
BAAF
3A51
BA45
3A91
38AB
BB3E
BA82
3A18
B915
BB10
B8F9
BA2E
3A99
3A85
B9A7
BA05
BAB2
3A0C
BA21
39ED
BAB9
3920
B93F
3AA5
3A97
39BA
3A0B
3A13
BAD5
B9B4
39C3
3ADA
3A23
BA6E
3936
BA0E
3A86
BAE9
BA85
39B0
BA9D
3A17
3A5A
BA33
39AC
39CF
3ABC
3A21
B9A8
3A81
3A8F
382C
3883
37C6
397F
3AD8
3A77
BAE2
BA51
BA81
B96E
3A4A
BACF
BA1D
3AA8
390A
3AC3
B8DF
BA65
BA8B
B905
3889
3AB4
3ADF
BAC1
BA8C
3AFE
B8F2
B978
39B7
397E
BAA6
BA5C
3842
3A28
BA94
BA68
B8A8
3A1E
394B
3AE6
B8EE
BA41
38D4
BA4F
395B
39B1
BAAB
3AC4
3B0A
3A06
394C
3A5F
B9D4
3B1E
BAAD
BA92
390D
B9C7
B98D
3A26
3A8C
BA1E
BA8D
BA8F
395C
3989
BA1B
3A1C
BA8F
BA33
3A5B
BAAD
BA78
398C
BA07
39E6
BA68
3AC0
3A18
B8A4
B947
3A57
BA4F
3AEC
BAC1
B85F
B6FF
BA5E
3B19
BB35
3ABD
3A94
3A35
BA94
B9F3
3A79
B983
BA51
BAFC
39C6
B9C5
3B01
BA18
B988
B879
B949
B94E
39F2
B755
3969
BAE2
BB18
BA8F
39CF
3A6F
BB4D
3A56
3A25
BAD0
B89F
BA27
BA66
3A5A
39A9
39AA
BA0C
3AA5
390A
B91A
B8E5
3A54
3A8D
3A50
3A56
38C1
3A79
3ABD
BAAA
BAA0
3965
39E3
B928
BAC6
BAE0
BA20
39FC
3870
3969
3A86
3A88
BA94
B8B4
BA0A
B9C7
3A45
B724
BA72
3AEC
BAB3
BA90
3A80
B923
B974
3A75
BAA6
BA9C
3A5E
399B
3A10
B886
3A53
BACE
BA42
BA55
BAA0
3985
39FB
B999
BA6A
BA9D
3A23
3A1A
BAFC
BA60
3A31
BAB4
BAA7
3A0C
BABB
B99D
3A69
3AAF
BA52
3A1E
39EC
3A42
BA46
3AC3
BA88
3A0F
BADF
369B
3B07
BB09
BAFD
396B
B908
39A9
BA1A
3AC2
BA96
3A2F
3A0F
3AB9
B90F
BA6F
BAEB
BA90
BA74
BA84
389B
3AC2
3896
3B0E
BAC2
BA9C
BAA7
3AA1
B9F4
BA5D
BA5C
3A90
391B
BA0C
BAB4
BAA6
BA1B
B96D
3AB6
BAB1
3A20
B9F1
399C
399D
3AB3
3B5A
3A19
BA00
BA03
3A84
B9FE
BAB5
BABE
3819
B8C3
BADC
B9C0
BAA0
3AF4
B8F3
BAC8
BA4A
3A75
B98A
3871
B980
3ABC
3A1B
390E
B981
B916
B9E5
3919
3A11
38BB
3B29
38FC
BA25
B9EE
3ADA
3AB5
B92A
B9CC
B9AD
3B32
B9C7
BA72
3AEA
B7E9
BAF8
3A65
3985
3A60
B853
3991
3AC9
B967
BA4F
3A97
B9BE
BAAD
B902
3887
BA38
BAC2
B918
3A9A
B9BE
3A8A
3AFA
BA40
BAF3
B8C0
3A30
3A3F
3A12
BA8E
3AD3
BAD4
B92E
BA57
BAE9
3A65
3A85
3ACD
3AB1
BA21
3807
395F
39A3
38BB
BA92
BA27
3A58
3A3F
BABE
3A74
BA4D
397A
3AB9
BAEE
BA8A
B860
39A1
BA1F
3A89
B937
BA26
BAB5
3A1A
3A2E
37D0
39D9
BA1A
BB03
BB1B
BA37
B9F5
BAF0
BA89
B887
38A9
B977
3A8E
39CE
3A0F
BA2C
3913
39E5
B94E
3A77
BA9A
BA88
B98A
3A4C
B9FC
3A94
3A28
3AB3
BA1F
3A34
B870
3A5D
B96E
BAAB
B914
3A9F
BB15
39E2
BA38
B966
3885
B9ED
B9BF
B9A1
3A90
B9C8
BA33
BA89
BA98
BA6A
3ABD
BA6C
B9FF
3934
3AD5
B9B9
B989
B88D
BA1A
BA3C
3AB6
3A5A
BA03
393A
39DD
BB0C
BA61
3A9A
3A4F
3A53
3A5B
3B4E
3AA1
B9C2
BA9F
BA42
3A3F
BA87
BA94
3A08
BAF0
BA73
BAA4
3A80
BA9A
BA35
BA80
3B05
BA81
3ACF
BA3C
BAB3
3970
BAC3
3A1B
B9B4
3996
BA23
BACF
BAE7
BAD0
3A7F
B7EA
3915
3957
BA2C
3A65
BA36
BA40
3A82
3AC6
3A88
BABE
3997
B938
39B4
3A8B
3A90
B9D6
39FC
38D3
B9FD
3A87
39AB
3A9E
BA48
B925
B9BB
BA26
BA91
3888
38C3
BA65
3A60
B906
3AB1
BA8A
BA54
3A5A
3A29
BAE0
39D2
BA93
398F
BA71
3A94
B919
BA1D
BA3C
BA1B
39C8
B98D
B991
BA81
B9C9
3AE9
39DF
3A24
395D
39B5
B9D2
BA41
3968
3AA1
BA6A
B96A
B710
B96D
37F6
BA20
39F8
3937
398A
39CB
BB4E
3999
3B1E
3AF5
B919
36A5
3AA5
B975
BA75
BA09
B8BB
B8CE
BB1A
3AA9
3AA9
3948
BA13
3AD2
BA97
BAA6
3A5E
3A79
B99C
B99B
3A76
BAC1
B8E2
3A40
3A62
3A15
3872
B996
BAC4
39EB
BAB1
3815
3A81
B969
3A1D
3A05
3AAF
39C6
3B1F
3A83
3AA7
3A05
3976
B837
BAB4
B97D
39CD
3A78
3A77
3968
3A84
BA04
39F7
3995
BA93
BA8A
391E
B719
B928
398C
3A3C
3930
BA6C
B9BD
BAC7
B9CE
3A28
3A98
BA7F
3A9D
BA3E
3B2A
BA34
397C
3B06
3B47
38C3
BA1C
3956
B9B4
BA85
3915
BAB8
BA2C
B9F9
39B2
389B
3971
BA1F
3A51
BAAA
3A5F
BAD3
38B6
3A6B
3A33
3A17
BA90
39D1
BB00
381F
3A3F
3A58
3988
39E5
3AD2
BA27
BA42
B9FB
BA5F
B5AF
3AEB
3A84
3A41
B99A
B9F2
B991
BA2F
B969
3B03
B9AD
3A81
BAB3
B91F
399A
BA7C
3A6D
3903
BA1A
3A1C
BA8B
B9C5
3AAD
B8EA
B917
B9E9
3984
3953
39DC
3A94
3A50
3AE3
B973
3AC6
B9D7
BA2E
3996
3A53
3A06
37F7
BA08
BA8C
B9EC
B974
BA68
BA51
BA85
BAEF
3B06
BB18
3A67
3A46
3797
B9CA
3AA2
B979
BAEE
BAAE
3AF9
B9C0
3AD2
3A2C
BA9E
3AD7
399A
B951
3B07
3AEC
3A9C
3978
BA53
BA53
B9E6
3833
38F1
3A60
BA03
B9B2
B87E
BA99
39A5
3AA3
399D
3A71
B9A2
B99F
3B25
BA99
BA01
3A1D
3A32
3A93
BACE
BA9E
3A83
BA83
B909
3A94
3A48
3A63
BB1E
39BD
BA22
3A60
3A1E
B8B6
BAC1
B9C9
3A09
BAAD
BADC
BAC1
BA0F
3A6E
BA9B
3AD8
39B5
BA25
3A73
3AB4
3B05
3A29
B964
3ABE
3975
3858
3B11
B9C2
3AC9
3A10
B9D4
3B0D
394A
BAE5
3AAF
3AB7
B947
3ABE
B8AB
3AAF
BA66
BA4D
BA59
3ACE
BA89
B9F1
B91C
3A1C
BAA3
B82C
BA34
BA46
B9C6
BA82
3B0C
BA1C
B89F
3A51
BA25
BA2C
BA23
3AA0
3AC7
B9BF
3A08
399C
3AA7
BAC0
BA71
38E7
BA05
BAD0
3A6C
3917
B9BE
39D0
3AD6
3938
3AC7
384A
B9FF
3A37
3A8A
3A69
B92E
392F
3A80
B9CE
3904
B911
B9B2
3A81
B785
BA99
3A63
BAA7
3971
BA48
BAC5
3AAD
3917
B98A
BAB9
BAED
3A2C
BA0C
BADC
BAB5
BA15
3A42
3AA1
B9E3
3A8D
3AE3
3B01
B7BF
3A13
3A68
BA7B
3AE2
BA85
3A4D
BA0E
3A84
3A3A
BA7A
3956
3AFF
3A83
39E2
BA18
BA23
B993
BAB7
B947
39F3
BA24
BA3E
B930
BA14
BAC3
BA23
3ADB
BA54
3AC2
BA73
B8EB
BB14
39E8
BA87
3AC3
39DD
3A85
BAF3
B9A1
B9F4
B9A0
3B22
3B12
3AC6
BAC4
3965
3B09
BA00
BA8D
BA95
3A0E
B999
BA4E
3A95
3A38
BA8C
BA71
BAC6
3A1B
BA55
3A78
BAC9
39B6
B92F
3A2D
396E
BAAF
BAB0
3956
392C
3A3C
39DD
3835
BA15
3A13
3ABC
BAE9
BA04
BAA8
BA08
BA33
BABA
B88A
3A5B
BA68
399D
B987
3A36
BAE7
BA25
BA13
BAFF
3998
3A02
3A8F
B9CC
3A31
B9EF
B92D
36CC
BB21
3A19
BB21
3A2C
BABA
3A7A
BABA
BAD0
3915
3A70
39EA
3A0D
BA8F
BA42
BABC
38C5
B72A
39A3
B993
BA4A
BB31
3A8E
BA60
BA43
BA22
3A46
BAD2
3A65
3AF3
3B20
BAC1
B855
39EF
BA0D
39BF
BA58
BA57
39B6
B887
3898
397B
3A92
B98C
BAB0
BAC2
3A20
3A24
3A71
BA50
BAB2
BA0B
B91A
BA84
39E7
39FF
B9EC
BA61
B9D2
BB1E
38EF
39FD
3AAC
BADE
39D6
B9D1
3AC9
3847
3A39
3920
B910
3A85
3B05
B726
BA80
B89E
38E5
3A4F
BA4D
3B01
3A45
3AD4
3958
BA02
BA85
38D0
3A03
B99E
BA7C
39B4
3A3C
B9F6
BAA5
B9CA
3983
3A06
BA9F
3A87
BA92
3B02
B908
39E2
3980
3AAD
3AB6
39EE
3A2F
39FC
BA2D
BAAF
3A44
B9F2
B6A6
3B04
398E
B8BC
3AB8
3A44
B977
BA02
BA9E
3A3E
3A8A
BA78
3915
B920
BA53
B9D6
3A8C
BA8F
3A5A
3A3C
BA5B
3AE6
3846
B956
3ACE
39DA
B9E4
38AB
3A98
39CE
39B8
399B
3A06
BB1C
BB0A
3AB4
3A82
3A06
39EF
3AB6
3A24
3A1C
BA5A
3A82
3ACE
B980
3A6B
3A35
39AD
BAB4
3A13
BA99
39AF
3B14
BABA
3842
BB1B
B9DA
38E1
3A00
39D5
BA02
BA35
BA31
B9F5
38BB
BA36
BAD2
3A4D
3A9C
3A07
B9CD
3A0D
39C0
B780
BAAC
BA14
BAAF
3B07
39CD
BA9A
3816
B909
3AB6
BA58
BA01
3875
BAC1
BAB4
3A60
B986
3B51
3A13
3B2A
B9AB
B9C2
3A9B
BA28
B92A
3A4D
3ACF
398C
B9A8
3A1C
3929
B9D4
B956
B998
BAAB
39A0
B9AE
3915
3A53
3A26
BA91
B960
B95C
3ABE
BAC8
3AEC
BAA7
3910
B8CC
BA06
B95D
39A9
BA91
3999
B91F
B9E4
B904
3AD5
B707
BAB0
3A93
3B10
3A87
3A3D
397F
BA0A
3A85
B89F
B9E7
BAF9
3ADE
B8F7
3987
39A1
BA5D
39D9
3AA0
39A2
3A72
379D
3AA1
3993
3ABD
B9A6
B9A2
3A89
3AA2
B9F9
3AA3
3A9A
BAC2
3A49
3A80
39FD
397F
3AE1
3A81
BA7D
3A1D
BA35
3A6B
B984
3A2E
3880
BA09
B88B
3A61
B85B
3991
BA35
B98A
B9AE
B783
BA4B
B905
BA86
3992
3AA0
BAC7
3AFE
BB06
BA3E
BAF3
3B26
39BE
BA89
3A4F
39CB
BA75
3A8F
397B
39DE
3937
BA8E
3960
38AD
3A83
BA4A
3946
3A87
BA75
BA04
B91D
BA8E
BA1E
BAB2
B9A5
3A4E
BAC1
B9B5
BAB4
3937
BA7C
B955
BA15
BAD4
3A5D
BAA9
BAB9
392E
BA5E
B935
3A75
3875
3743
BB19
3AAA
3A66
BAA6
36A4
B966
3A9B
3781
BB15
3AAE
B9DE
3A7D
397F
BA99
3A8C
3A60
3AC0
B895
38DF
BABF
BAC9
BAE7
3AAE
3961
3818
39D5
39C9
39C7
BA96
3963
BA19
395C
3AAE
39BD
B888
BB10
BA9B
BA26
B624
3A18
BAF1
39C8
3A21
BA8A
3A9D
BAC9
3B17
3AB1
3874
3A22
BA50
B9FD
BA98
BAD3
BA3F
BA99
3A21
BA87
B8E7
3AE1
BAB3
BA94
BA0C
BA86
3A23
3831
3A8F
BB27
3A19
BA11
BABB
3A95
BA75
BA4B
3B07
BAF7
BA04
BAB7
B9BD
BAE8
BAC6
B7A3
B834
3894
BB1F
3ACD
BABF
B9EE
3AFF
3A8F
39EC
BA97
3A43
3945
3A26
3A08
B9C3
3A3D
B965
3833
B97A
3A23
B909
BA5C
B85B
B9D7
B795
BA83
BA0D
B99D
399B
3AA4
3A97
3A2F
BAE6
BA02
39B3
3A0B
3A67
BA30
BA30
BA63
B95F
3A1A
3A16
3ACC
BACA
3B30
3A70
3AFA
B942
B945
BA77
B9F8
BAB6
3B21
BA05
3A1A
3983
BA3C
BB3D
BACE
381C
39CE
BA76
3AF4
BA9B
B625
B9D1
BA76
38FD
3AA6
3989
BA78
3920
398E
3966
38FF
39A4
3A24
BA30
B9F6
39AD
BA86
BA46
3AE6
BA6A
385C
39A3
BA56
BA40
BAC8
BAB9
3AA5
B981
3712
3AE1
3A80
BA8E
B973
3AD2
397A
3B2F
BA18
BAE6
3AE6
B909
B9E1
BA30
3A47
B85A
3953
3A78
B9DF
BA3F
BA5F
BAE0
3A65
3A27
3A55
BA80
B92F
3A50
3A3A
B992
B8FC
3A37
3A1E
3A44
3AA8
3ACB
B8F3
3ABC
3A83
3AD1
BAE1
3A08
3A08
B911
3AB4
BA18
39BB
3A59
BAE9
BA92
39C0
39A0
B9F3
3A1B
BA5C
B996
38EF
BA12
3A68
3AB5
B9D6
BA03
B915
3889
3A41
B983
39C7
B8DF
3B04
3A3C
BB02
3ACF
3AB1
BA0E
BAA0
3A8A
BB32
3AF4
3A98
3A07
BA73
3937
BA2F
B97A
39AC
3A07
3A87
399E
39AE
BB42
3A96
38BB
BA00
3B11
BA81
39EC
3B39
B912
B9B6
3ABA
3A01
3A38
BABD
3A9A
3A50
BAEA
3921
39BD
B8A8
B98C
BAD4
3A08
B8A1
3A72
B97C
B956
39AF
BA10
BAB3
3A1A
BAF5
3B0F
3980
BA86
3989
B97E
B9A7
BAB1
BA8F
3AAE
BA72
3A5C
3AD6
BB1E
38C6
BAE4
390E
BA43
BA41
BABA
391A
BA48
BA23
BA03
3AC2
BABA
3A8D
B9F7
39D1
BA08
BAD5
B98D
B815
BABA
3A44
394D
BB10
3AC8
BA50
B96C
B9C0
3A3B
3A7D
390A
38D8
3761
B891
BA6F
3A80
37B7
BA55
BADE
39B2
BABB
3A61
B9BE
BA1E
BA37
B9EE
3937
3914
3991
3997
B9E2
BB16
3B16
3ADD
3AC6
B9FC
3881
BA3C
BA17
BAE8
BA48
BB1F
BA3B
B99D
BA58
BA25
3617
3982
38BD
3940
3A45
BA74
B95B
3A9A
3A62
B8FA
BA1D
3AFB
39C3
3988
BA22
3A67
B9D8
BA8E
3A93
B91B
BA5E
3B18
39F7
3A60
3A18
3421
B9BA
3A0E
3A69
35BA
B98A
3A2C
3A24
B9BE
3A98
3A29
39FA
BA5A
BA43
BA9A
B88A
39F9
3AA4
B9F9
BA89
B999
BA36
3AD3
3A7E
3A1D
B9B1
BA21
B988
3847
B9FE
BACD
39CB
3B02
BA54
B7FA
BA08
BA8C
3AC1
B94C
B94A
BA95
BAED
3A85
3A89
3ADD
BB09
3992
387A
397A
39C9
BA52
3996
BA50
3B30
BA0E
BAA7
BAAF
39F4
B895
BAB7
B9B9
BB4E
3A37
3A58
3B33
3851
3B25
B9B0
3A48
3990
3AD1
BACB
3A7F
3782
B92B
3880
398E
BA91
3ABB
B51C
3AC5
BA8D
3AA1
BAFC
3A2A
3A81
3A7A
3AA3
39C8
3AAE
BA99
BA1D
395D
3A87
3915
39D1
B97E
BAE1
3A3D
B83D
39CA
BB06
BAA0
3A93
3916
BA06
BA16
BAF2
BAEA
3AB1
3990
BB08
BA91
BACA
BA0F
BA22
BB0A
BAE8
BA9C
B860
BA53
BA34
B894
3998
3A2E
3A79
BB19
3B04
3A29
39D1
BA0F
39BA
398D
3B04
BB07
3AAE
3A3A
3A85
B9AE
3AC3
B985
B98D
B581
BA50
39F6
BABA
BA89
BA29
3B0E
B910
3A77
3AF8
385E
3AA9
3AE8
BA5B
B9D3
3A26
3848
B88D
3ABC
BA5B
3AB1
3A11
39CF
3AF1
3A0D
3A2E
3A38
39BF
3918
BA83
BA0D
3B30
3A09
BA33
B9B0
BA8C
3AB2
3B04
BA22
B89F
BA44
3A09
B9CD
B966
B958
3AC7
B910
BA2F
38F5
396B
39BC
3AAA
38EE
3895
3A4B
3A3E
B99F
B9E6
BAA3
3A64
3ABD
BAA8
B9D3
39F6
3A84
BA21
3A35
393E
B82C
3A3D
BAA5
BACE
3A7C
BA91
B9F6
BA07
3AD2
39AE
B879
36F9
3A23
BA8A
3745
3A80
3A96
3B07
3A65
3A80
3985
3AAD
BA03
3A33
BA91
BA87
38CF
3AA2
3A80
BA55
BA86
3A33
3A6C
38BF
BB09
3AC5
3B07
39E7
3A81
377B
373E
3904
B91F
BA81
B924
BA2E
BAC2
399D
3903
BB29
393E
3A96
3957
BA54
BA0D
BB0D
3880
39C2
B78D
BAD1
3949
3A21
B996
3A36
B93A
3ACD
B9C0
3A9A
BB25
BA80
BA57
B987
BA8E
BAB8
BA9B
BB06
3AA0
3A8E
BAA4
3A90
BA8C
BA06
BA18
3A2A
BA80
B920
BA84
39FA
B9D3
3A59
3A31
B9C9
3B0F
BA6B
B883
3A6F
39C6
BA01
BB16
3A85
BAB2
B9A3
BA88
B8AF
3972
39A0
B801
3AB7
BAB3
3993
BACA
3AC0
3893
3A8E
BAE8
B8A4
382C
38AE
B99E
B9D9
BA18
3AA1
B98B
3920
3A79
BA47
39AE
B99F
3A68
BA0E
3B12
BAA3
BA3A
3AA4
BA09
39EE
BA8C
3826
3831
3AA2
B969
B9D5
BB02
BA0A
BA8B
3A8B
BA7D
BA1C
3B11
3A00
3A55
3999
B90B
3902
38E2
3AA0
BB06
BACA
B9C8
3A63
39F0
3AB8
BA61
BA88
B8F7
38FF
B943
BA47
BB0E
38AC
39D3
B981
B9D2
BA35
BA71
BA89
3A52
BA92
3AC5
BB27
3A97
3A85
39BA
B901
BA01
B9D8
BA10
B937
BA97
B9E5
B9F7
3865
B9CD
BA7B
3B0E
3ABB
3AA4
BA6A
B8F7
BAC7
BAB6
BA32
39A7
BADE
BA06
39B0
B921
3818
B9B3
38BA
BA36
BA83
3B08
3AAE
3985
BA80
3A95
39EA
391F
B9CE
BAD2
BA92
BA0C
BA23
BAB8
3A16
3A52
BAF8
3A6F
BAAB
B9FC
BAE3
3A8F
3A5A
39F1
366E
BA6D
BAB9
B9AF
3AC1
BA7A
3A9B
3A26
3AAC
BAE3
3937
3A8B
B9C6
3AD0
3B1A
3882
BA0B
3A3E
BABA
3904
3884
39B5
BADB
BA84
B9E7
3933
B9DB
BAC6
BA44
B9DE
BAB7
B894
3A8A
3A7C
389C
BAD7
3A9E
B984
BA23
3A9A
B97C
3A08
BA8C
3A19
BA4B
B89D
B9A0
39D7
3A50
BAA3
BAD8
BA62
394F
BA08
B984
BA6C
B95C
B9C9
389A
39B5
B8D4
BA72
3781
3956
3AA5
BA42
BA8B
BA81
B9A6
BA99
3992
3874
3A91
3A31
3A41
BA5F
BA49
BAF3
B9FB
BAA8
3A1E
3857
3AF3
3AA1
3AB3
BAE2
394B
3A92
395E
3A8A
BA8F
BB01
B996
BABC
3A78
BAA5
B512
3AC4
BAB4
39C6
3A3E
3728
B946
BA1C
3A96
3985
BAE9
BAB2
BA3D
3ACF
3A27
B9F3
3A39
39E2
3A95
BA7D
3AF6
B944
BAAF
B9AC
3A90
3ABC
BA36
39BC
BA22
B8C9
BA25
3A79
3B21
3ABE
BAD4
3A9C
3977
399A
B99E
3A1B
3A2A
BA2C
3AFA
3A1D
3A95
3ADF
3831
B875
BB3F
BA8D
3B04
3907
BA47
39F3
3A8F
3A2D
3AA8
B9CB
B788
3A74
BA01
3A4E
BA52
3A35
B98F
BA23
372F
BA29
BA3B
BADF
BA7C
3981
B974
3991
B820
BB20
35BC
3A0B
B8FE
BA7D
BA13
3A43
39AF
B9C6
BAE9
3ABB
38A5
3A17
3ABC
BA44
B88E
B987
3A4F
BA9D
BA46
B906
39F0
BA9F
39CA
3A90
B9F6
BA33
BAE3
3A68
3A27
BA0A
B976
B820
BA28
3A02
3A75
3A4D
BB03
BA74
BA42
BA0A
BA7A
BA9A
BA3F
BA39
B9D4
3A00
BA41
BAF3
3A21
BA76
3A36
BA5F
B90D
BA89
BAA8
BAA4
3A0B
BA06
3A9A
BA09
3982
393B
3914
BAEE
B9C7
3A58
BAA1
BABB
BACD
38A2
B978
BAA9
3A84
3A01
B9F6
3A55
B96D
BA61
3A81
3910
3AB0
3AA7
3A05
390F
BA8F
3AF0
BA1C
B838
3AB2
B92A
BAD2
BA25
BA14
B70D
3AAE
B921
BA91
B9D0
B898
393F
B9CE
3ACC
B916
3AAE
B9F4
BAD4
3946
3B0E
BAF5
B98F
BAAC
BADD
3A8A
3A0E
B9DC
388B
BA20
BAC8
39C2
BAC8
3AAA
39FB
BB0A
3A43
3ACC
39D5
392C
B9CF
B963
B9AD
B9AD
B941
BA32
B9E6
3954
3A69
B996
BA89
BA51
B9D8
3B21
3A4B
BA7F
398C
BA90
39AA
BA0B
3B0D
3AF7
3992
BA13
B994
3A8F
B9DE
3A53
B9A7
3A50
39F7
38FF
BA73
BA8B
3A1E
B875
B895
BA97
3A58
3ABA
BAD2
BA27
BAB5
3B19
BA25
B9AF
BA2C
BAA5
3B24
BA16
BB34
BA5A
3AD1
BA77
3AAF
3A7A
3946
3A12
B8B8
3A01
3A17
3A97
BA7B
B9E8
3877
3A3F
3B03
374B
BB09
3A2D
3A92
B768
BAB7
B986
39CE
BA80
B897
BA38
BAB1
BAF4
3A65
BA5F
3942
B9A5
3ABC
3A52
3994
3A6E
BA34
3ACE
3B1C
3912
B904
399B
3A0F
B9D3
B9F3
3A7F
B9E9
393F
3AB2
3A04
3A83
3A2C
3A4D
3A13
3A3E
39E4
BA3B
3851
BA1B
BA4E
39A4
3A27
390A
3AC7
BA72
3A95
BA9B
B953
39E6
3997
38CD
BA36
BAE8
3A10
3A28
B9FF
BA87
3ABB
BA48
BACC
B927
3A7D
B9AB
BA0E
BA24
BA75
39D6
B80C
3739
3AB2
3AB0
3A05
BAC1
B9B4
3B0B
3ACA
3A72
3A04
3AA0
BA32
3A39
B81A
B9E3
3871
B9B6
B8CE
BA8B
BAC4
BAB4
38FE
3A2E
3970
3AE7
3A70
B943
B9FE
B9E5
B868
3ABF
3B02
BA61
3891
3A31
BA3A
3908
B9B3
B957
399D
3A9D
BA7F
39F3
BA55
BA14
3A15
BA5D
3B13
BA5A
3A2F
B93D
B868
3A15
B927
3820
3A8B
B8CB
BAC5
BA02
BA37
B9B3
B9FE
3A6C
BADF
3A5D
3A15
399F
B8C3
3978
B9D3
B9F1
B9ED
3A03
3A17
BB29
B9A9
3A78
3982
B954
BAD6
399A
B93C
BA2D
BAE8
B9CD
3984
39B9
3AA0
BAA9
3B22
BACA
396C
BACA
3AA8
B5AA
39E7
3A0D
3A41
BA51
BA20
3A8E
3A3B
BACF
3A09
BAC3
383B
3AA6
3A85
3AA7
38C9
3AC1
3AF3
B8EA
3A77
3A11
BAB2
39A6
3A97
3965
38F3
BA55
3A2A
BA4F
BA0C
BA47
39F8
3A50
B987
BA49
3930
3919
B89F
3A64
3A23
3A11
BB0F
3A3F
3AEF
3A2A
39B3
3A82
B776
3974
BAE3
BAA2
3A5A
3A3A
BAB8
BAB3
3969
B903
B981
BA0F
BA1B
3AA8
393B
BAB2
BA09
B8A2
BA87
398F
B748
BA84
B9BF
396B
3A29
398A
3A02
3A68
B987
3993
3A08
BA21
3A9C
3A89
BB28
39F2
3A94
B9BB
3A60
BA38
3917
BA1A
3A60
3978
B997
3A92
B93B
B982
399B
3B13
B999
BA03
3A0B
BA0C
392A
B982
393F
3A99
BA6A
B94A
B983
3A40
B97D
3983
3AE8
BAC1
BA81
BA9E
BA64
3987
BB12
3AD1
B9DA
3A60
BAB0
39D0
B99B
BA22
3AEA
3A46
3920
BA6E
3A14
39C7
BA26
392D
38A4
3A93
3A15
3A76
3A19
B895
3944
3A77
39BA
BAB6
3B0C
BA66
BA23
38A3
B904
370F
BA05
3B1C
B9C0
B96D
3AA9
BAB3
BB26
BB05
BB01
3ADA
3980
BAC0
3A71
39A1
3ACD
B974
3991
B937
BA15
3A20
BA3C
3A43
3934
3A43
BB22
B840
B976
398D
3AED
B8D9
B9FF
3AD9
B968
392D
3998
3A9D
BA45
BB29
393C
3A99
B930
3710
39EE
B9D3
BA81
BB18
BA77
3A75
B986
B9D4
3B02
BB14
B9C9
BA58
3AC6
3994
BA96
BAA1
B9DE
3A3B
3B17
3822
3921
3A8E
B924
39C5
BA51
BB02
BAA4
3945
3A89
B983
3A41
B97A
3B07
B938
3AC0
3AFD
BAA3
BA0F
BACC
39E2
3AF0
BA01
3A59
3B37
3A4B
3994
B908
B9F5
3AAE
BA9C
BA6D
B9CE
B88A
3A84
BA94
B9F4
3A88
3984
378C
B93E
BAA3
37B5
BA40
B95C
3A98
3A47
B918
3ABE
396B
BA88
3A2B
3A8E
BA7A
3A84
B9F3
3AAD
3A99
3A66
398D
398B
394B
BA5C
3A5C
3B00
3A91
3892
3A0C
B8A7
B9AC
B95A
3A16
BA9A
B9F9
BA20
3B19
BA8A
390E
B8C9
BA0A
3A9C
BAFE
BAB1
B99B
BAC6
BA45
382F
3AC2
BA52
BAD8
BAB2
3A28
3984
3A39
3A2F
BAB7
3A3C
B854
3AD5
B914
B981
BA3C
BB0E
BA80
BB39
3A05
3936
BA61
3A0C
3A99
391F
BB06
B88C
BAB1
3AA3
3B18
B9DD
3A97
BAB5
B98B
3A3B
BA02
3A68
39BD
B953
3A92
BA61
BA1E
BA1C
3A82
3A2A
BA18
B8A1
3A83
398A
3AA8
BAB1
3A09
3A6F
B997
3A65
BA2A
BA4F
B916
B823
BAE7
3950
BAE5
B961
BA26
B9D1
3A92
BAE8
3840
39DE
B918
3A58
B9D6
BB02
3AC4
3A5E
BA80
BA42
3A91
BA46
39EC
BA02
3A85
B9B9
BA3C
39DD
3A41
396D
39CC
BB48
3B0A
3A2F
399D
BA88
BA32
39AC
BA56
B925
BA64
3835
B8CD
BA75
390F
3A14
BAA7
39C8
3A0A
3A00
BA07
BA58
3AD4
3842
B954
3A1B
3938
38BC
38B5
3968
B937
B981
39FA
BA8A
BB05
3A9A
BB07
BA96
BA3C
3A67
3A84
BA9A
BA81
BA2F
3A4E
B9BE
BA80
BA7E
B9A4
38E8
B975
3A8B
BAE2
39B0
3A92
39E5
BA61
399B
B9A1
3AE6
3A33
B974
B5E3
B9C5
B973
BA1A
B9D0
3A13
BA3B
3A3E
BA98
BA13
BA07
BAA5
3A56
39F2
39BC
B8DF
BAD9
3A0E
B93B
BA15
BA6C
3B14
3978
BA7E
3ABA
BA91
B8BC
BA08
3A93
BA15
39DB
3A4D
3995
BA6B
BAA0
B9F7
B9B5
3A10
B9BD
B87A
BA76
B884
3949
B988
BB0C
B931
39E1
BA82
3A19
39FA
BA07
3AB3
3990
3A4B
3828
3993
BAB0
380E
3415
BAC0
3661
B9D1
3AB6
37E4
BA12
BA65
BAD4
BAAA
BA8B
B921
3A8D
3ACF
3AF2
B68D
3990
3A5D
3988
BAA3
BA58
BA51
BA0A
BA5D
BA56
BB08
3A8C
BA72
39CD
3977
39A2
B6F7
3984
3A32
3B07
B9FB
BAEB
BA93
3A80
395E
B9C2
BA99
3932
3A93
3A08
BA96
BAB1
BA8E
3865
3702
BA66
B924
3AAA
B9E7
BAF9
BAC2
3A31
3AD8
BA38
3A4A
39F4
BA80
3A87
BA6E
3A09
BADD
3A89
B8B3
387A
B90F
BAA9
B9F7
B9E4
370E
BA2C
3A14
B9AF
3B29
3A64
39AC
BA9C
B9ED
380C
B977
39CF
BA25
B9A8
BABF
3A93
BA7B
B9CF
3A24
BA89
3A15
B9E0
BA52
399B
BA9B
BA19
BA8E
BAEC
38EE
36E2
3A30
BAFB
BA83
3AAC
39CC
B8DA
3ABA
3864
3A41
BAED
B990
B880
3A9E
391B
B9DC
B9BC
3A42
381E
3AFD
3B25
B922
B972
BA22
B95B
3AD1
3A1B
3A66
3A00
3A04
BA96
3AA7
39E1
3909
BAD5
B5E5
B992
39A4
3A34
BA23
BAB7
3970
3970
3988
3A2B
B9AF
BA03
B97A
3AD3
B9C5
38FE
B912
38F7
3A18
3A2C
39AC
39CF
B933
3B16
3AB8
3A65
3AA9
3AEA
B995
3911
39E4
BAF6
3B12
3A88
3931
39F6
B9CE
39C3
BAB1
BAE2
38A2
3ABA
3A94
BA47
394D
3AC3
B9DE
B9B0
3AC9
3A38
3B05
3AA2
BA1C
BAB0
BA31
3AA3
398F
39AC
BB3F
3AA4
3896
BAA8
39C6
390D
3A00
38BF
3A22
BA0F
39D4
B9B6
391A
3834
37BA
391C
3AF1
B9DF
3A07
BA0F
BAEC
3979
BA91
BACE
3B03
BA31
B888
BAA8
B7E3
B9E5
3A72
BB20
3A71
3AB5
BA83
3A06
B8AF
B918
39B7
BA89
39A2
BA3E
B9CD
3A5C
BB01
3A69
B866
BAB2
38D1
BACF
BA43
3987
3A84
B7AA
3A48
39B3
B9A7
B923
BA14
BA8A
B923
BA58
394D
39FC
BA5C
3A92
B82C
3999
BAB0
3A71
3AB1
3AB0
3960
38C4
39FC
3A24
BA65
3A74
39A2
BB23
3AB7
B1ED
B99C
3A89
B9C8
B993
BA9B
3A61
3942
BA00
BA94
3A2B
B925
3AFA
39FB
B9C1
BA10
3A47
36A9
3AE3
BA40
3A55
B894
BA99
3899
BA49
BA74
3A00
BA18
3AA2
B9C2
B9E4
BB10
39F4
3A90
B9D0
BA90
3A9C
BA91
BA15
3A2E
3A08
BA90
BA68
BA9C
3A27
BAA7
39E0
BA1A
BA17
B798
3A6A
3B02
3959
BAB5
B877
BAA2
3A5E
B9A5
3A14
3AA6
3A89
39DC
3ACE
B89D
BA12
B897
B9C4
BA8D
BA75
B9E0
3A80
38AA
3897
BA2F
3981
392E
BA9D
35FC
3AFE
BAD2
382E
BA89
BA8C
3B45
B94B
B944
BAD2
BAC8
BA60
39DA
B610
3A32
3A4C
BADD
3A8C
3A1F
3B1F
38A3
3AE8
BA0E
39A7
38BF
B9A0
3A90
BA98
3A6F
3A37
BA8D
B885
3A2C
394F
B914
BA48
3AEE
B7F4
37AA
BA8C
3886
3A2B
3AC1
BAB3
BAAD
3AE1
BAA4
BABE
3A6F
3A9A
B9C6
BA45
BAB6
37CB
3AD8
BA16
B9CD
BABF
3B03
B8F8
B939
BAAC
3B16
3AE5
B980
B9F1
BA0A
BB14
3A20
BB10
38F0
BA85
BA59
B99F
39C6
B951
3A2D
3AFC
BA9B
3852
B93F
BA71
BA2F
396F
389F
3908
BA1B
3AA9
39BF
B921
386B
3939
3AA9
BA8A
B9C3
BA36
B99F
BABA
B98C
BA5A
B97A
39BB
BA99
39AB
BABB
39AB
BAA3
BA22
3A69
3928
BA06
3966
3AE2
BAA8
BA59
BA03
BAF2
397E
3ACF
3AB2
3A87
BAA9
3A0A
BAF6
39BA
BA7A
3AB1
3AF2
BAAA
BAAE
BA7D
BA9B
B9F4
3A6D
BA79
BA86
B95C
BA03
3A14
B9D5
3B14
BA14
3962
39EF
BAF1
3A15
BA9B
B930
B9D4
B9CA
BA57
BB0C
BA5E
B9CC
3AB5
3AA5
3906
3A2D
3A10
B93D
3A44
B989
3880
3B36
3AEA
BA82
3A17
3A2A
BA5B
BA85
38A3
BA86
3AB2
3ABA
39C4
BA13
BB01
BA5B
B8AE
BAD6
BA0D
BA65
BAE2
BA5B
3A78
3A92
3A85
39BE
3A75
BAF6
BAD8
3929
3A39
39A0
3AB2
B96F
3A1C
BABC
3A23
BAD4
B9A4
3AA4
BA84
3A7C
3AA3
3A88
B9CB
B936
BAC9
3A94
3A2F
39D2
39EC
3A4F
BA58
B9F5
BB0A
BAB2
3B43
BAA1
BA3B
BA6A
3ADB
3977
3A90
BA4D
BACB
3AD1
3B10
3A4B
B9A5
3A42
3A0E
B972
BAB0
B9C7
39C3
3AA2
BA92
3917
B9DE
3A52
3AB0
BA91
381D
B98B
BA29
3A57
3A95
3A68
3A0B
BAFC
3A34
3AD7
B9F5
39F3
3797
B930
BA81
BA5D
BAAC
39CA
BA86
3AA8
3AA7
BA8A
B893
B778
3A2B
B9DC
3A6A
3A1A
B9C1
37E3
3996
B934
39FC
B9E9
BB14
B983
3B1C
3B0C
BA44
B993
37A9
BA30
BA65
3AF3
BA71
BA51
BA85
BA75
3A8A
39AD
3A04
BAEC
B93F
B91C
BA0E
3A3C
3A75
39D5
3A1A
3A4F
36A0
3A9A
39F7
BA82
3A67
38E7
B9B7
B9AC
BA93
BABE
BB03
3A8D
3A34
BB35
3A2A
BAA4
BB07
BB01
BAA7
39DB
BA0F
BA61
BA4D
B973
B987
393B
3AA6
B9D3
BA1E
BA78
3966
39DA
39FB
3A13
BA7A
3B0D
BA9F
B871
38A8
3B10
B936
BA46
3A43
BA7D
B8C3
B989
3965
3B10
3928
BA93
3AE6
3A9A
3AA8
B9E3
3AAA
39A5
B59B
3A8B
BA81
39B4
BAA7
BB0B
3A9C
BA2B
BA18
3A88
BA0B
3A1E
39C0
B98D
BA28
B7DD
BA63
3A47
3A7C
386F
3AA6
BA4E
3A21
B898
BA52
B985
3A39
BA14
BA58
BA23
BA3C
B854
3A0E
3B10
3A2A
BA3D
3A38
3935
B98B
B764
3B01
3B04
BA12
3A50
3A28
B9B7
B99D
BADD
39DE
BA12
3AD3
3AF0
BAD0
3A2C
391E
39C2
B9D2
3975
3B01
3A8E
BA2A
3A17
B9D7
3A58
39C4
B9ED
3A73
3A10
3A18
379E
B930
3A6A
B8FB
39A5
BAF8
BA2F
B92E
BA33
3A43
BA39
B971
B95F
BAD9
BA86
BADB
3A0F
3A17
3888
39F2
3ADC
3A25
B9E8
391E
B795
3A07
B803
3A51
BB22
3A03
39FC
3A48
B92B
BA5F
BA05
BA25
BABD
39A3
BAA0
3A02
B95B
3A93
3A22
3A00
BAED
B9D4
3A65
3ABF
BA8B
3992
3A04
3A2D
B813
B9CE
3A4D
BA58
B9B6
3987
3A7B
BA63
B8A2
B9FB
3ACC
B9C6
B9B1
38D4
3AAB
3A4F
39FF
BAA7
BAB7
3A34
3854
BA18
B8D1
BAEA
B8C8
B72C
3A25
BB1B
3942
B941
39DD
3AA7
3B06
3A80
3A97
BAA5
3896
3A9F
3A9E
38A0
B874
B917
B873
BA25
BA15
39B8
3A8D
BA96
BAEB
38F3
B9CB
3B16
BA42
BB3C
3A4C
BAAE
B945
B9AD
39C8
3A1C
3ACD
BA00
BA7C
BAA6
3AA5
B955
BA9F
BA6B
B97D
39B5
BA64
3A58
B98F
3A7C
37C2
BA5B
3B18
BA81
393B
BA80
3AC9
B885
3AC0
BAA0
3A18
3AB8
3990
387F
BA05
BA37
B9B1
3B15
BAAD
3A72
3965
3A4B
B9E2
BA92
BA42
3966
B99C
3ADF
3A9D
39C4
3AA2
3A26
3ABA
3A81
39E8
39A3
BA3A
B7A4
BA05
BA6B
B9DE
BAEB
B9D1
3A02
39E2
BA4C
BA7B
B940
BA3A
BA9B
3A85
B967
BA17
BA39
3AA3
3B04
39AC
3AD0
3A83
BA0F
B984
3A4A
394E
3A65
BA2F
3968
BA10
BA88
3A07
390E
B9A8
3ADC
BA06
3B24
BB1F
3ACD
3893
BA62
3A0C
BA70
BA8D
BAF5
38BD
BA7C
BACD
390E
39BF
BA13
391E
B8A8
BAE0
B98B
39BA
BA1E
BA20
BA9F
B94C
36B9
3AEA
BADF
3A1D
3A84
3ACD
3A27
3B0B
BA68
B8E6
B998
B9D8
BA23
BA47
39DC
B9D4
B9D0
3A8C
B851
3A77
392D
3B00
3A82
BAB5
BAE6
B93B
BB02
BAF7
BADA
BA27
39A4
B9F5
BB04
BB06
3816
3A3E
3A0E
38A5
B6E2
3A99
BAEC
BA82
3ADA
BA9F
39B9
39A6
3A02
3A9B
B911
39D6
BA23
3AC2
39DA
BB42
3A46
BA1A
BA26
3A0D
3957
BA4E
BAC1
B98F
BAC4
3A68
3AEC
37E4
39EE
3A9A
B98F
B9C4
39F0
3793
3A79
B937
3AF9
BA3D
3A23
BA9A
3A29
B9D3
3993
397B
3991
3B0C
BAA5
3931
B9F0
39A9
3A2B
BB0E
BA4D
B9C5
BA55
39A1
3A21
BAFC
B8A8
B51B
39C2
3927
3980
BA31
B9F7
3B0B
BAE9
3A22
BA24
3AA4
B981
B79D
BA26
39D3
39A9
39E3
3A21
3AD5
B959
B9D1
B88B
38AD
BB04
B90F
BA99
BA5A
3A5F
3A37
BAA3
3A23
B8D1
39CF
B9AF
B8EC
BB04
390B
BA1B
3A72
3AAF
BA27
B9DE
392C
BAA1
B9BC
BAD1
3A10
B986
39E8
B915
B90F
39CB
3A9F
3ABB
BA95
3A6D
BA88
BAFB
B70A
3924
B96F
B9F6
3A76
B9C5
BAAF
BA8F
B9B2
B91A
3776
BA9B
BAF6
3A7A
3AB2
B995
3A91
3A97
BA1C
3A0E
3A8C
39EB
3527
BA65
3938
B8B2
BA2B
3975
3A86
B914
3A21
3A41
395D
B924
B84B
3984
BA85
38A1
BB0C
3A73
38BE
3A49
39E3
B996
B97C
B9F7
39CA
3A77
BA80
B995
3A9E
BA18
3A15
BA58
B9A3
3975
3A35
3A09
3A8B
3A73
BA7E
BA8E
B987
B992
B81E
BABC
39EC
3A0E
3A2F
39E0
BA2F
BA93
B82A
3AA2
BAC7
3A23
BB0C
BA0E
BA2B
BA0C
B976
BA52
BA04
3822
BAD9
BA10
3A18
39D2
B81E
39A1
3A8C
B941
BA45
3A0C
3A64
B9E2
3A9A
B8D5
B9A3
3812
3A2D
BAC3
BB0F
B79D
3B0B
B730
3A3A
3B23
B9EE
3A62
B9CD
BAA2
3A2A
36EA
B906
3961
B93B
3A61
3981
BA20
3A96
B9B7
39CC
3835
3A3B
3A4F
3ACA
3AEC
B975
B8D8
3A41
3B2B
3A28
B91B
3A18
BA56
BAB2
BA40
BAA9
B9A8
38E0
3A2E
38E7
B9A5
BA43
3ACA
BA42
BA9A
3A48
3AF0
B989
BB1E
3AB6
37D4
B8A1
390F
3A90
B855
B928
3AF4
3A2F
3909
BA86
BAD8
392B
3A1D
BA34
3A3C
3903
3A60
3913
B961
B87A
39F8
B991
3949
BA7C
3ADE
39A4
BA28
BAAC
BB08
3A8C
39EB
B96F
BA18
BB18
3A73
BB01
3B0B
BA13
BA48
B837
B815
3A14
38BA
3B03
BA0A
BA05
BAFA
BAB2
BA7A
3A6D
B9C9
B85F
3A7E
3A10
37DE
3A3F
3A49
BA3B
3949
3A92
B97A
3AF3
BA8D
3A12
BAF1
BA52
398F
B97A
3977
3AD0
BA08
B7B4
3A1A
B9FC
BA55
BB10
BA6C
BA89
3A2A
BA9F
B920
3A7E
BA15
B9A2
3A44
BABB
3664
B8B4
3773
BA21
B91C
BA28
3AF1
B99D
BAD0
3AAE
3B0F
3ABA
BA8C
BA0B
BA1C
BA38
B83C
3A6C
B8DA
BAEA
B9B9
BA0A
3947
B819
3889
BA5F
B95E
B98F
393C
BA3A
B985
BAAD
B9BB
BA1F
BA1A
3A00
3B0E
BA49
B907
B943
3ADB
BB07
3A04
3A2E
3A5B
BA1A
391C
3AD8
BADC
B983
39F0
BAD0
BB03
3A7F
3AF8
BA3E
BAB8
BA10
3AB0
3A3A
BA93
BAB0
3B00
BA9C
BAF2
BAC5
3AFA
B749
BAC5
383E
3A0A
3A67
393A
3A13
BA6A
BA1A
B90A
3AEB
BAD6
3A99
BA01
BA07
BA1E
3906
3A56
3A91
3A77
BA97
3836
3A67
3A5E
B884
3B15
B9DE
B8AD
BAA9
3A64
B930
B857
39D3
372E
3934
3B07
3818
39F9
3ABF
3A20
B9B3
3A7B
3613
B938
BA85
3AF8
39F5
BA4B
3AE6
3B1A
BB0C
BA20
39D1
3AB6
3927
392E
3A1C
B9EC
3AA2
BA7E
3A5A
BA8F
3B18
B924
3A70
BB0A
B9E3
BA13
BA39
BA52
BA2D
3ADA
388E
3976
BAE2
3A2D
387A
388A
BABB
3AE3
3A02
B9DB
3B18
B9D6
3A90
39C0
3A17
BA72
BA87
3A32
3A0A
BB03
3B35
BA3A
B9B1
3A67
3A1F
B9E2
B781
3B03
3A19
B9A2
BB26
3AE1
BA94
3A95
3A5C
3AC6
3A63
3AB3
BA80
BA88
BA8E
BA86
BB12
399E
B9C4
BA8A
3A5F
B95E
39B1
BA90
B8D2
39B1
3963
B9F1
B8C1
3929
3A82
B939
3AC2
39BC
B92C
3AA8
3A34
3A90
BA0C
BA3C
BA11
BAC5
3A85
39C8
3AAF
B8E8
3AF3
3A91
38D2
B9C7
39B8
BA0E
3AD0
B8DE
BAE2
BAC2
3970
3AA7
B9C3
3917
BADA
BA3E
39CA
B982
B86B
3A7E
B992
B96C
BAB8
B9F6
373A
3AEA
B86C
BA3D
BA72
B9F4
B963
3A5F
BAC4
3950
3A81
BA1F
3A70
3A3D
B9B2
B980
3A62
BA23
B7C3
394E
BA51
3834
3A35
B987
BA0E
3980
B985
B746
3A26
3A7B
3A5B
B9A8
3A11
B9C5
387B
3B1C
3936
3A67
B798
3AAE
BA23
BB06
3A4F
3A4D
BA52
3914
3AD0
BB1B
3A1F
3A8B
3A17
BA35
BA40
3AD8
BA6D
3ACB
3A05
3AAC
BADE
39EB
BA9B
3A0F
B8DA
B9DB
3A19
BA08
3909
3A81
B7EB
BA91
BB03
3A89
3A02
B91D
B90D
BA07
3A9A
BB13
BA07
B99B
BA0C
3A43
398E
3A5F
BA9E
392E
39CB
BA1F
39B9
BA58
3AD5
B9E7
390C
3A88
3A2F
B904
399C
BA2F
BA4E
3585
3ADC
3A34
3A70
3A1A
3AD9
3A20
3A9D
B959
399D
B9C2
383E
BA2B
BADA
B9C4
3AF9
BA79
3A0B
B97F
B874
B9E7
BAC6
BA4E
BB2A
BA87
BA79
BA41
B9E5
BA9E
39D2
3A1F
39AC
3A6C
BAD0
B870
BA9E
B9E7
3A06
3A99
B926
3AED
B98D
396E
3AE9
BB38
3A94
BA53
39B0
BA55
B9ED
B9C7
BB04
BAA8
3AEF
B8E8
3A00
3964
BA0F
B888
BA89
B900
3AA4
B823
B980
3A68
3A84
3A6C
3A88
BA3C
3A5C
3A00
3A1D
3AF6
BABD
3AE8
3A91
BA41
3A5D
3A9C
B915
3B2C
3AB0
BA6E
3AD0
B989
3A6B
B9D9
BA72
BA05
BAA6
BA16
B90B
B9CE
3AC5
3A8E
3A5D
39D1
3AD6
3808
B9FD
B98B
BA6F
BADA
BB11
3A45
B9CD
3A5F
B972
BA2C
394C
BA75
3AAA
3AA5
3A3F
BA22
3A87
396A
388B
BA14
3AD2
397E
B8D7
3853
39EB
39CF
3A94
3999
BAAA
BA15
BAEF
3AEF
3AA4
BA82
B969
BA27
3A8B
B9D3
B8D7
3A5F
B7B0
B9F1
B789
3B01
B9F8
B961
BAE2
BA22
B9FC
3A30
3A3B
BABA
3A19
BA3D
BAFC
BAA1
BA47
BA90
3632
3A9E
3AC8
BB09
38B6
3A00
BB14
3AA8
BAB5
3A66
39A2
39F0
BA55
BA3F
B981
3AAF
B9BA
BAEC
3AF0
B983
BA01
3B13
3A6E
39F8
BA4C
B9C6
3934
B94C
BA5C
BA67
393D
BAD7
3A15
387F
3B11
BA8D
39E0
3B08
BB05
BAF6
BAB4
3905
B988
3A10
3A55
3A07
BACD
B988
BAE3
B98D
B9E9
BAB5
BA9A
3A43
3AA5
BA47
BA57
3A61
B9A0
3A95
3911
3A96
3ACD
3A47
3A24
BA7D
BA7B
B997
390C
3ABC
BAB9
BAA5
3A53
3A89
BAA4
BA5A
B9DB
3A33
BA88
3A8B
BA81
BA92
BAB9
BA70
3824
BAAA
3940
BA59
BA70
BA25
3A5D
BA50
3A37
3AC0
3A9E
3A50
3A21
B8E7
BA39
BACE
3A0A
3B03
BACA
BAA8
BAAD
BA44
3A08
3ADD
3AA7
3A7B
3B18
BA0F
3A78
BA85
BA39
B9C6
B9AC
B92F
BA98
39EE
BA0F
BAFC
B965
B973
3A9D
BB56
3AAB
3A45
3AC5
3952
3AE0
BA13
B9F3
3AC3
3A90
39DC
3910
3A87
3856
B9DF
3AC6
38B1
3970
391F
BA88
BA51
BA94
3A9F
39FF
3A29
B7DE
B9F7
BA52
3A5E
3A39
BB1B
3A3C
B87B
37CE
BA4D
3A98
BA42
BA7F
B9D5
3AB0
3829
B9BB
3AFC
3A5E
BA24
39B4
3A20
3B00
B9E3
3A16
3AD5
39FC
B9F2
B770
3A95
3A5F
BAC2
BA5B
3A69
BAD8
3A04
B632
3ADA
3AA5
B92D
B9D6
396A
3A1A
3A67
BA8C
B984
3A35
B9B6
3A4B
3A84
BA24
3A94
3AAE
BA55
3AA0
39A1
3895
BA95
B9AE
B8D3
392E
3A8C
B8F5
BA42
BB26
B85C
3B0C
B93F
B9C2
3B08
B9D0
3A17
3AE0
B99F
B9C4
BA86
B981
39F7
3A2B
3AF0
B9B8
BAD1
3A57
BAF7
3A24
3A33
39A8
B8D4
BA3C
3883
BA1A
3AE1
BA5C
3B09
3A4A
BAB6
3AB3
3A09
BB1F
3AA0
3A5D
39DB
BA88
B9C7
3B19
35F0
B8DA
B8B2
3A41
BA03
B990
3A26
BB1B
3ABF
BA16
398E
3A90
3A93
3A3D
39CE
3944
BA9D
3AA4
BA01
B9CA
BA97
394E
39D4
3B14
3B0E
BA26
39F1
B9DB
368A
3969
39B9
3992
B9BE
BA49
3791
B9C3
38C4
BA2E
36B3
BA73
BA0B
3A02
BA1B
38ED
B642
B9EA
3998
BA3D
3A7C
B9AE
3ABF
BA6C
3982
3958
3AC3
BA7A
39D9
BA32
3B1F
3994
393D
B8F4
BAB7
38DE
BAA5
399A
3AF8
B9D8
39F6
39A0
3ABC
BA4B
BA8E
3A2B
B98D
BA75
BADB
BA10
3A6E
BB08
3ABC
BAF2
BA84
3A8D
39C1
3AA5
3ADB
B991
B9F0
3A56
3A59
3A2E
BB00
39FA
BA1C
BA9E
3890
3A89
BAA4
BA87
BA6C
3A0F
BAC7
3ABF
3A92
3A1F
3B0D
3B47
B8D2
39E9
B81C
BACC
B9C9
B99A
B9AF
BA81
BA3E
3946
BA64
B998
39D3
B988
B868
BA88
B9DF
3AB6
3A96
BB04
3A8D
39CC
B8BD
B83A
BA84
3A79
B9C6
3ACA
3A5A
3668
BA11
3AB9
B9E8
3AC4
B9C7
BAA8
3ADB
B76B
BA87
BA59
3A4B
BA6C
BA36
389C
397B
3AFF
B9A3
B983
3A84
3A0C
3822
39D5
3AE8
3A20
B893
BA3E
BA90
BAAF
39A5
BA59
B983
3AA8
BA91
BA9E
BA93
BB0C
BAC1
3AE4
3997
3A27
393B
B494
B925
B928
39ED
BAF2
391A
B9F0
39C2
3A84
3A21
36C5
BA4D
BA9A
39E7
3B37
BA6F
3935
3A29
BAEB
3A9E
3A96
BA6B
3B0D
3A05
BA3E
B9A2
3AF6
3A26
B816
3A7D
BAA7
3A36
BA7C
38BE
3AA0
BA8E
3AB2
BABF
3B04
3A18
3A9A
B999
3AF1
BA26
3A67
39B7
B9C5
BA9E
B985
3A5B
BA1E
BA53
BA19
39AF
3A83
3A85
3AA1
BA72
BA9A
38BC
3A11
B8BA
3A46
BB18
B7F5
3A90
39F1
BAD7
3A89
3874
3AEE
BAF2
3A58
3AC5
3A5A
3A9F
39DD
B9A5
3A28
3808
3987
BA73
39C0
BA68
BB17
3A7C
B9B2
3B1B
3A52
3906
3A29
3AA7
39E7
39A2
3AB0
BA23
3A67
3963
BAE9
BB4F
3A32
3AA7
3961
BA28
37FC
397B
BA21
3A74
B9AF
BA28
3A77
B9FF
BA77
B947
B8F6
3A8F
BAB8
3A23
39C3
3867
B934
3AD6
BB09
BA27
BABF
BA17
B98E
BA22
B9CC
BA50
3A70
BA70
3A81
BA94
3A88
B8A1
B990
B9AC
BA18
B8BB
3A84
39DA
BA68
B9EB
BA8F
B9F9
3A40
BA70
3984
3AA8
3B03
39CD
BAEB
3A9D
BB08
B9FE
BA1B
3ABF
BAA3
39A8
BA17
3A4B
BA6A
3A24
3943
3A80
3A74
3A00
394B
BABC
BACA
39BE
3A33
BA9B
3A86
BA1C
3A42
3AA0
BB0A
B989
3B0A
BB0C
BAA8
394F
BA60
BAD8
3A08
3AAB
BA09
37AC
BA84
3A8A
B9DF
3862
B9A5
B995
3A21
BA82
B9ED
BA50
3A95
3A63
3AD4
B9F9
B907
BA8F
BA37
3A00
39FD
3AAC
3932
BA21
3817
3899
3AE4
3AF2
38C5
BA26
B984
B95F
B837
B9EA
3B0F
B90D
BA85
3A43
3AAD
BACC
B7A7
BA98
B9EC
BA0F
385A
3955
BA3A
3A32
39D1
3B1D
B998
BA36
3A10
B9C6
39B3
BA7D
3940
BB06
BAC5
BA9E
3A84
38AE
3A48
39E8
3942
BA06
B9E8
3A28
39E5
BAAB
BA66
BA67
3A52
B82C
B98B
3A35
BA31
BA82
B9C6
3A30
38A9
3A8B
3AAA
39CD
BAC6
BB22
BA60
3B0A
B902
B8FD
BA32
39CF
BA4F
3AF9
BA76
39D1
BA0D
B9E4
BA0D
BA0D
39E0
B98C
39A9
BB11
B9F5
B9D1
397A
3B2E
B99A
BA0A
BAAA
BAB7
3992
38AF
BAB9
3ACB
3A59
3A75
BA83
BA49
39F6
3A89
38CA
BA8C
BA0A
3A9C
BA52
B9C6
3A86
BA1C
39A0
BA83
B7C1
39E5
BABE
B830
3AB6
3A32
BAA7
3994
3916
3967
BA20
3A1E
3A2F
B9E9
395C
3AB2
3ABF
BA62
39C7
3A60
38E0
B9FD
BB62
B9AF
3A01
3AB2
3A90
39A8
BA44
BA16
3A1F
BB07
B80A
3A88
3AAE
3A84
3ADB
39E3
3A80
3A89
3AB0
3A6E
39C4
3A6C
3B15
3A95
B97E
B93B
3ACF
BA72
B964
3AF9
3ADD
3A55
BB0A
3B35
B9B2
38C6
3A63
BA62
B9D3
BA87
B999
3A3A
3A69
39D9
39D1
BA14
B7DD
BA78
3A86
B899
BA8E
B8D5
39CB
3998
38A6
3AFE
3A91
3AE9
BAC1
3980
3AE8
B9BA
B91D
3B07
3931
B9F0
39C1
B9FA
BA0B
3A9C
BA90
B9D3
BA1B
39F6
3A54
B9E7
3B0E
3A43
3A04
3A04
398B
BAA6
B8C6
392A
3A84
3AC0
BA0F
3A9A
3AA5
BA41
BA9C
3800
39C0
BA1E
B955
3A21
BAEC
3ABF
3A35
394A
3AB4
3917
BA4E
3A27
39AE
3ABA
B990
3912
B9BF
3A96
BAC2
B9A8
B976
BA50
BA6D
BA53
BB08
BA4E
3A77
3A62
39DA
BA9B
3B10
B9B7
3B18
3A9A
3A3F
3A0C
BA27
B8DF
3A90
39A1
3AB0
B9C8
3A20
3B09
3AD9
3969
BA9F
39E7
399A
3916
BA61
39D2
3A8B
392F
BA83
37C0
3ADE
39D4
B9A2
3A8E
B8C1
3908
BAC5
3A9D
39D6
BAB5
BA39
3A85
BAA1
3AEF
BA5F
3A15
B9CE
B84B
3A75
B973
B849
BAE5
3906
BA6A
BA85
B984
B942
3A05
398E
399E
BAAC
3A67
B93A
BA9C
3A8A
BA11
BA53
BA22
3A32
B9E7
3A43
B93E
3AFA
38B3
3B09
BA1B
38CB
BA52
BA99
BA8E
3A3D
BAA1
B9E2
3A77
3A9B
3A12
B786
B9E9
BAC5
B9BB
BAC3
3A80
39DB
3A47
3A53
39C2
3A75
BA09
BAB6
B99E
3945
BA04
3A26
BA54
3B39
38F6
BABC
39DC
B9D3
3A40
BB27
3A14
B8F6
BA86
3B06
B9FB
3A97
BA51
390B
BA57
B95D
39A6
BA34
BAC9
3930
B9FC
B977
3A55
B9A4
3AB7
B82D
B8DD
38BC
B8A2
3A0F
3B1F
3AA1
B931
39CA
3997
BA71
3822
BA1F
BAE2
BA61
3809
B8B1
B99C
B870
397D
3A75
BA16
3A43
BA8F
BA9B
BA47
3A30
3A03
BA75
BA4F
39B4
BA17
BABF
B9D2
BA42
3A95
BA38
BA11
BA94
3B22
BA93
BA33
3891
3AE0
3A01
3A15
B9EB
BA23
39E5
37BA
B962
3A30
B9B2
3B05
39E5
3927
3A56
B860
3998
391E
3B0B
38F3
3969
B9D2
3A34
B89D
BB05
399D
397C
B9E6
39AD
BAF7
3AC9
3A14
39DD
B7E6
BB02
BB03
3A1C
3AB4
3A70
3975
38E1
39FE
3ABE
3928
BA79
BABC
396A
3A74
3AD3
39E7
3A7D
BB06
BAA0
39D7
BA2E
39FF
BA61
B9E6
B789
BABC
3A3F
BA72
BA67
BAFF
BA9B
B99F
BAC3
BA27
BA89
39C2
3A34
3A3A
3AA6
B945
3ABB
38C7
3A8C
390F
B953
3AFF
3A8F
B9A3
B8D6
3992
BADE
3A96
39D5
BB56
3A89
BAC9
BA93
B971
3A5F
BA91
BA74
39AF
3A67
BAC7
BA62
BAB1
BA85
BAAD
BA85
3AD4
BA09
3A8C
BA7C
3AE2
39C3
3A6E
395B
BAA3
39BF
3B15
3B07
3AE9
BB3B
BAFC
B95B
3A23
3721
3987
3A7A
BA56
B930
B93A
BAB8
B98A
399F
3AB3
BA87
3A42
B9AA
3998
BADD
BA56
BA4B
B984
3AB6
3A92
BAB6
3AED
BB0F
B72D
BB4B
3AC2
BA88
B98A
B9A9
B99D
38D7
B946
B982
BA8D
3A96
BA1D
BAA2
B9EF
3AD0
3ABF
BA68
BA65
3A34
BA36
3A02
BA19
3A75
3928
3971
3AA3
39EF
3ABF
BB2D
BAD3
B9AF
BA39
BA47
BA1C
BB68
3AF3
3663
39E2
BA8B
B8DB
3A1C
39A6
3A00
3A82
3840
B8ED
3A8F
BA85
BB10
3AFD
3A8F
B9D3
39CA
BB31
BAF7
3A6B
BACB
BA68
39C3
B9BE
3AA8
3A8F
B9CE
BA42
BB03
393F
BAD7
39A4
BA69
BA5E
BA02
BACB
3A40
B935
3933
B9BA
BA3A
3ABE
3A7A
3942
39AB
39D6
3AB4
B88D
B7E9
BAAD
3AC0
BAAA
B8F4
BABE
BA8E
B99D
BA97
3839
B9BD
3AB8
BB4F
3A1F
3A2E
BA5E
B889
3A94
B9AC
38C3
BA00
3A97
BA8D
B9C1
B954
BA24
3B09
3908
3A94
3919
3A72
BA54
B9D7
3A9C
3997
BA01
BA8B
3937
3A9F
B9B3
3A44
B8B2
B9CE
3A15
BABE
BA58
BA0C
3A67
B9CB
3A0F
3A20
B94D
3A98
398D
3A63
3A9C
BA5D
BA56
B998
BAE0
B9E9
3997
BA4A
B949
BA3B
3A1E
BA5F
B707
B9E4
39BD
39F1
3B01
B9E7
BA38
B95B
38F7
39F5
B8BA
B931
B99F
39EC
BA0F
39C0
3A30
3941
BA8E
39BF
BA52
39C2
3A29
B9B9
BA1E
375D
B9A7
3B04
B952
3ACC
BA8D
3992
3ACE
3A97
BAD0
3B30
3989
BA80
3AE8
BA65
BB00
3B04
3A9F
B92A
391B
BA96
3AA9
38F8
3A3C
BA49
3A8B
BA07
BAB3
BA25
B947
BB15
3A4B
B9A5
3A1B
3A69
BA1B
BA94
B9B1
B99A
B9C5
3A3B
3A89
BA82
3A88
3AB3
3B4D
3820
3A3F
BA44
3A00
3A90
3A1E
BACC
B983
3AB1
BA9C
3B02
39EA
39E2
B9CD
3AA8
BAA5
3ABD
3A33
3A1D
BB0C
3A00
BA92
3929
39AE
3A03
3B06
3A9F
BA29
3A00
3AE9
BA26
B854
B966
BA77
3A8E
B817
BAA7
B8AE
BA31
3964
3AF0
3AB2
BA4C
3AB0
BA7A
B933
B892
39AA
3AC8
3AB2
39ED
BA5D
BACA
39B5
BA74
BADC
3A2D
BB00
BA75
BA27
B983
39AC
B932
398A
BA40
BA4C
B89A
BB09
BB11
BACA
3AB9
B9AE
B93F
3940
BA8E
3A96
B938
390A
3A21
395A
BA13
39AA
B923
BA95
39DD
BA53
B917
B913
3A8C
BA48
BAA0
3883
39DB
B7C2
BAC1
BA43
39FC
3A8C
3AD1
398B
BA34
3B1B
BAB6
BAB0
3937
BA58
B96A
3A13
BA7D
BAFD
B92C
3949
BA3B
BAD0
BA78
BAA6
B964
3A97
B975
BAE1
3A58
3A79
3893
BA16
BA23
BA6D
3AE3
BA8F
BA6C
3B0D
3980
39F8
B90D
38CF
BA0D
39D8
BA63
BA1F
BA8B
BA48
BAE6
3AE9
3AC4
3A45
3AE5
3A63
BAD0
3A60
3AAC
3A17
BADD
B94E
39F9
3975
BAE8
BA6A
B8B0
3AEC
BA0C
B911
B9F6
BA65
BA89
B993
BA0C
39C1
3ADC
B9BC
3A2A
3B5C
B91D
399D
3A86
BADE
B96D
3A26
3907
B98D
BA00
BAF6
3A75
3B48
3AA7
BA87
3A82
BB1F
39AB
3B22
399F
3AD6
BAD0
BB08
B999
BA40
3A0A
BA6B
39C0
3A50
3942
BAC9
392E
3A5B
395E
BA6D
38F3
3A34
3994
B9CC
B989
B992
39BF
B928
3941
B9B2
3A1B
B728
36AA
3959
3A6B
BAF8
3A63
B911
BA17
BA23
BA7C
3A97
BA94
389F
3A1C
3A5E
3923
B9D5
BAAF
3A3E
BB05
BAA0
3A2B
BA1B
B805
BA37
3A57
3AA1
3AA3
B9B7
BA67
BA89
3A92
3AA7
BAB7
BA06
378B
3B01
B9C7
396C
3A9F
B7D0
3A60
39E9
3987
BAA3
BA81
BAF5
B7E1
3A23
3981
BA92
B8BA
B8B2
B964
BA40
3A85
BA82
381A
3A8B
BAC1
BADF
3AC2
3AC7
3A8D
BAEC
BA86
3A79
3A70
38D2
3A05
B728
B9A3
391F
3A1B
BA5E
3A4E
3A83
BA80
3A9F
B9A2
B90A
39D5
B9E3
3AB0
BA9A
3A01
BB20
B9F5
3AE6
3AC5
3A67
B9FE
3A75
3AFB
3ADB
BAAF
B9B1
39FF
B99D
B9E6
3A18
394A
390C
BAE7
BA81
39F6
3A0E
3A9E
383A
BAE1
B9E2
3975
3A53
B8F8
3AA3
B881
3AC9
39E4
383B
B9E3
BA73
BA9B
3918
3A42
3AB1
3A43
BA80
3A91
BAC3
3787
3A8C
BA00
3AB8
BA14
39E2
3A62
39A9
3858
3A8E
B9FA
3ABC
BA9C
394E
BA3E
BAB4
B97D
B9D4
3ACD
394F
3929
BA71
B9B6
B996
39EC
BA1D
BA20
BA38
BA8C
B992
38CE
392B
399A
3ACA
BA1B
BA7F
38F0
3A64
3ABF
BB35
3924
BA09
39BC
39A5
BA18
3A49
3A79
BA41
B853
B9AD
BB02
398E
B9AE
3A75
B8D4
BB27
B89C
B9B0
3A42
3A56
3A9A
B90A
3A99
37E5
B961
BA12
B8C8
B8BD
B943
3B04
3AE4
BA85
3B33
BA90
B9FF
BA98
B7FE
B9FD
B8BD
3A21
B8D0
BA54
BAD5
3AED
3AC0
BB01
BA57
38A3
BA9E
BA47
397C
B997
B9C0
BA8B
3986
3B27
3A7A
3B03
3A43
3A7E
BA66
3A96
BAA7
3A8C
3AEE
3B2B
3A41
3A6F
BA3B
B8D1
3A82
BAB1
B95B
B99E
B99D
3987
BA76
3A1B
B8D6
39DB
BA30
B99B
BAD5
B916
BA1E
3B07
3906
3978
3A6B
3AC2
BABD
3A12
BAE2
3A96
BA1F
3912
BA05
BADA
3A8D
BA72
B9BF
BA83
BA78
381C
392A
3939
B957
38AF
B984
3AA8
BA1A
BA27
3A67
BA05
3A58
3ACB
3B08
3ABB
3A67
3B00
B96E
BA86
B9A4
BA5B
3A84
BA43
39C4
3A89
B9F9
3A78
BA1D
3A1E
3969
B887
BA00
3969
BA40
B9FE
B989
BA8C
BAB9
B9A1
3A19
3966
B9AA
39F1
BA16
39B8
B83A
3A0D
3850
BA92
B9FA
3A24
39E4
BA31
BA9B
BA15
3A7A
3AC7
39A1
39E0
3ABF
3990
B95C
B959
3AA9
BAD8
3AA4
3A38
3A9A
BA79
3991
BA93
39D8
3A88
B9BB
BA89
BA56
3B00
BA91
398B
380A
3A18
B6E6
3770
3990
3A3A
B908
38FE
3AE5
BA90
BA6E
BAB9
3A32
BA6E
B9B9
3A36
389A
BA74
BAEF
3B08
B846
BAA6
38B4
3A8F
39CE
3AB3
BAA7
3ADA
3AA8
B9A8
3A33
BA96
3924
3A7F
BA31
3932
3AF6
B9DE
3A25
39F9
BA6D
396D
3ABC
3A5B
BA50
BB0B
3A3D
BA42
BA53
38FA
39FA
3A88
B8E1
B94A
B983
3AAF
BA2F
BA7E
3994
3A17
BAD9
38BE
3970
39B6
3B26
3A5A
B9F8
BA71
B9BF
B968
3900
B9D1
BA89
3AC3
3A95
BAE0
B976
39C5
BA3C
3A39
BA2A
BA16
BAE6
3A63
3979
B894
3AC9
B99A
BAE5
3983
3A8A
B99F
3930
B8A1
3925
BA85
BA33
BAE0
3B1A
3A79
BA48
3A93
3AED
3ABC
3A10
BA28
B91C
BAC9
3A55
BA22
BA85
3980
3B08
B94F
3A8E
399C
37DB
BA81
B9AC
B988
3A92
BA77
39FD
B951
B86D
39B8
3AC2
3ABA
3AC3
3B52
BA66
3A08
B9EA
38F1
3AB6
398E
BA1B
3A78
BA99
3A99
3A8A
3A97
BAA5
BA8A
39C3
B8F3
B8DB
3A80
3A15
3A26
B99A
B983
B94F
3B04
B99B
39B7
B812
3ACB
3909
BAD5
B913
BAA8
B991
3A3B
3B1F
BA0D
39AD
BA26
BA1E
BA6D
BA1B
BA1D
BB03
3997
BA7C
B9CB
BA9D
3A45
B795
39CC
B9F3
BA5C
BA56
3931
B984
B66F
BA8F
BA7A
B6A2
B8E1
BA8B
3921
3ACB
3956
38D1
BAA1
3AA7
3A71
3940
BA66
3B32
3A93
390C
BB18
3B07
BA94
BAE9
3A61
BA50
BA98
3945
BA2D
3AA4
3908
BAAE
3901
3A92
39E8
BA46
3A8A
3AFF
BAC5
BAAD
BADD
3976
3AB2
37DC
B85A
BA9E
3A0B
3995
39EE
BB35
BA36
3A88
B996
39E5
B8EA
B9BA
3A31
B71C
BA0B
B961
3AA7
B7C9
B7D6
3A55
3A38
BB12
BA34
BA6C
3ABF
B982
3980
B9A8
B9EF
39F7
B935
3A8B
BAAF
B953
388A
3B0A
B885
B948
3A5F
B973
3A4A
B9B7
BA86
BA24
BA4E
B914
3A08
B81B
3A27
BAEA
BAC3
3969
BAC4
3A49
3920
3A5F
BAC4
3A1F
BA62
BA66
B983
380A
3AE2
BA1F
BA14
3A3E
BB00
3A94
B9BC
3AD3
3A25
BAEA
39D5
3921
BA95
394B
38BC
393E
3A37
3A17
BA01
B9CE
BA8A
BACA
B88F
3B16
3ACC
3A32
BA77
BAA0
3A00
BA4D
BAEE
3A93
B9C8
3986
3A5B
B8D6
BB02
3AB9
3A1E
B8B7
BAA0
39D5
BACF
B866
BA25
3B0D
3AD1
BA02
B943
39F0
BAC6
BA38
39D1
BA1D
BAF6
3A01
BB1E
3AA3
BA9C
BAEB
B950
BA8A
B9F3
BAD0
B98A
3A1C
3A22
BA12
BA80
3A99
B9BA
3A2E
BA8D
3B07
BAA9
BA1E
3993
3A15
3A55
BA6B
3A4A
37BF
3AB2
BA28
BAC4
3A5C
3B00
B8EA
B982
B98E
3A33
BA5B
B8CB
3A8D
BAEF
BA85
BACA
3A95
BA97
3B6E
BA33
39F3
39EB
395D
38A3
39A2
BB0D
3949
3A8B
B793
3A68
3AE8
3A70
399C
BA83
B50D
BAA8
39EE
BA88
39BB
3AF5
B9DF
BA86
39BF
B998
3A3C
3AB3
3AB1
BAA1
3929
B93F
B945
B999
3A19
BAA2
3AAE
3A2E
B9A3
BA46
BA7C
BAD6
3B01
395B
B744
39C8
3A58
B9E9
BA35
3993
B983
3983
BA7A
BA0D
B9A1
3A4B
B885
BA6B
3A3E
3A0F
B905
B9A8
B911
3A1C
3B0E
B9A0
3AA6
BA8E
B986
3903
3B21
BA2D
39BC
3AB0
3ACD
BACB
BAE7
B926
BADD
3AAD
BA05
3A6F
3AA9
BB08
BAA0
BA70
B9B6
375D
3AB3
B905
39B1
BA8A
3B6A
B9DB
BA6E
BA63
3A23
BA50
3A26
BA3C
39F4
B889
3AC6
BA1F
3AEB
BB2E
389B
3A16
3A02
3AAE
BA81
389D
3905
BA56
3A88
3933
3A35
3AF5
BAD3
388A
3AA9
B67D
B9AE
3A8B
3A7A
B991
39A8
BA83
3A3F
BA52
393A
3A7F
BAD4
3A68
3A38
38F7
BB03
BAB2
3A24
3AEA
B945
BA12
BA17
389A
3A59
391D
B9E7
392C
3AB4
B991
B945
B9DB
3825
B9D4
BAD4
3B1F
B953
390C
BAD9
3AE0
BA36
3981
BA94
BA6F
B9C4
3946
BB01
BA00
38B3
BA9B
3ABC
B9CE
BA0D
BA84
3A11
39BF
BB1F
3ADA
3A38
B956
3A8B
BABB
B9C3
3A42
B960
3AF2
B94B
3A77
3983
BA98
387B
38E3
3AE8
3A4D
3AAE
3A9F
B781
BA49
BA6E
3A97
3AC8
39C6
399A
393B
BB11
3B34
B9F8
B9F7
3AE9
3A0E
BA3B
3A0C
BA50
393D
37E2
B98D
B904
BB1B
3AAF
B9C3
3A64
3ABA
3AF4
3A02
BA8F
39AC
3A04
3A7B
3A4A
3978
39A6
394E
B801
B960
BAE8
B9B3
3AFE
3A8F
BB0D
39F4
BA25
BA88
BAA4
BA49
3A65
39A9
39F9
3AFC
BA82
3A01
B9E7
BA88
3A51
BAE1
3888
BAA4
BAC7
BA1E
B880
BA9C
BA54
398A
3820
BAA2
B981
3B19
B984
B902
3A84
3AA9
B98D
B925
397F
BA82
3A56
B90C
3AB6
B7A3
3A53
BA2D
39A9
39B4
BA89
3A3E
3989
B9F7
3A76
38A5
3A81
3A5E
3A65
393A
3A6E
BA75
BA4E
BAA6
BA09
3A9B
3A90
B93E
BA9B
BA96
BA23
3A15
B828
3A04
3AA7
B8F4
39D2
3A85
BAC2
BACD
3A87
3A4A
BA96
B932
BB08
3931
B980
BA18
3AAD
37D4
B9F7
3A5A
BAC9
3978
3ACC
B852
B994
BABC
3963
BA27
BABB
BAF1
B9FE
B810
3AA8
BA41
3996
BA6F
B988
BAA8
3A16
BAD3
B9A6
BA7B
B97E
BA22
B997
3A9F
3A6C
BA91
BB27
B79A
3A0F
3A7F
3AC1
3A33
BA6A
37CC
BAA5
3A2B
BB15
BA00
B9E9
BB37
BA41
BA06
39B6
BAF4
BAC7
398D
B988
BAD6
39BA
3A06
3977
B906
BA77
BAF3
3A9E
3A14
B93D
3A6A
39D8
38D8
B996
BA9F
BA33
38A3
3A71
B833
3971
BA75
B9D0
BA7E
B977
3A26
39C9
BAD2
3A28
3AE4
BA2E
BA3E
39FF
BA22
3AD2
3AAD
3969
B8F2
B9B6
3797
BAAD
BA69
3A4C
3AF5
3A37
39E3
BA19
BAAC
BACD
B9C6
3A36
3889
B9CA
BA9B
BAAD
BA7D
3AA9
3B1F
BA26
BA5E
38C1
BAAE
3A6B
3A7E
3A45
BB1B
3AD3
B9B2
B92F
B871
B9BA
3A7D
B974
BA3F
BA83
3A23
3A17
B90D
3946
BA19
3A8A
B9E8
38AC
B8CE
3AAD
B9D6
B96D
3894
BAD3
39DC
3A20
3A70
3A72
3A98
BA9E
3A58
BAEA
BAB9
3B05
39B5
B9DE
38C7
3A7D
BAC9
3A66
BA63
3A2B
39BF
B993
B9FC
BA46
B905
B9EC
BA28
BAC6
BAE0
3824
BA48
3A83
3AA3
B8BA
3AB2
BABB
BAD8
380C
3B24
399B
BAD3
3A8B
39DA
BA0A
3B1A
3A8D
3AAA
3B06
BA6A
BA95
B96F
BAB1
399F
B9B8
37DC
BA69
3A20
3A25
3AE1
BB3A
3B0F
B9D0
BA99
3B07
BAEB
B7B2
38CC
3A74
3A74
3812
BA6D
BB02
BA6E
B9C9
39E6
3B05
39A9
39FC
BA20
BACC
BA30
3A3A
BA1D
B8E6
3AAB
3A21
3A8C
3A24
BA89
BA99
B9B2
B98E
3B1F
B8EA
3994
BA98
BA4F
39D4
3A1B
3A32
BA5C
3A9B
3A82
BA41
39D5
BA49
3AEE
390C
39BA
3A11
3AAC
BAB0
39FC
3AC0
3A28
B9AF
3A80
B916
BA13
BA0F
BA8F
3AA7
B906
3A8F
BA1F
3B02
3A0A
3A81
B7B3
3A12
3895
3A40
BAAF
BA62
BA11
3AC1
3AC1
BAAA
B9F3
3A99
38EA
39A0
BA2F
3A48
3A99
B8C1
B94F
3AFE
B9F5
3A24
3AF7
BAD3
38CA
3A81
3A3E
3996
3A13
3A85
BA4D
3A12
BA78
38AE
B997
39F0
BA1D
B8AE
3A91
BA56
3A95
B9D2
39A5
B9F1
3AA6
BA8D
BA22
3991
3A1A
BA3F
39EC
BA96
BAC7
3A85
39A1
BA03
3AB3
B984
BA50
B9BE
BA6D
B828
B9D8
B961
39B4
BADB
3A4B
3820
377F
B8A7
393C
B687
BAE7
37CA
36E8
3A2A
B9B6
38B0
3A54
BA42
3997
BA31
B9B7
39F1
B9CE
3921
3A87
3AA6
39A8
39ED
39FC
B9A9
382D
BA7A
BAEF
B9E6
3929
3A11
3A4A
B9B8
3A37
3A87
BB1C
3AC7
3A1C
B98E
B995
BACC
B92B
38E9
B956
BAB0
B9C3
3B1B
3A49
3AF1
BA77
BA84
3861
BABB
BB13
B9FF
3AD4
BA95
BAA3
BAF5
BA98
BAFD
BACB
399E
3958
BA4F
3A87
BAB3
3A21
3A17
3A4C
BA8A
3B2B
3995
B7B5
BA9C
398C
399D
3B69
BA7A
36D6
B928
B9E5
B98B
BA80
BAD2
39D9
B90C
3963
B8EE
BA81
B9C6
3834
39A5
3958
BAD1
39F5
B9FC
BA09
3A11
B8F5
B7F8
3A44
3B09
3B12
3A86
3A35
391B
3A72
BB08
3A8D
BAA8
B781
390F
BA83
BAB0
3A66
B9F4
3A92
BA2E
3AD6
B8EB
3A18
B9B2
BA50
BA81
BA53
3A96
BA2A
3A81
BB01
BA47
38A6
B9A8
38B0
3A06
BA69
37C2
BA67
BABA
BAF3
BA9C
3A33
BAA7
3930
BA98
3A22
B937
39B6
B95E
BA47
BAEE
3AA1
B98A
BA12
39C3
39BF
3995
389C
B744
BA0A
BA42
3AC8
BA24
BAC0
BA97
BA98
B851
BA84
B962
B9D1
3A7A
BA39
384B
3A3C
3A0D
39BC
3A16
BA81
B995
3A0F
B503
BA81
BAE0
BA3E
B57D
3A8E
B8DA
3A30
BAAD
3B29
BAD3
BB2A
BB31
BA2F
39D0
3A59
39E7
BA8F
3AAC
39AE
3B02
3982
3A4A
BA83
3A1F
3ACD
BA87
3A2E
BB1E
394D
3B04
BA91
BAEA
BAB0
3B00
3871
B9B2
39F8
3A47
3A37
BA01
3950
389E
3AE6
38EF
BA6E
3A73
39C9
BAFE
BA2C
3AA0
BA1B
3AD2
3AA1
3975
3896
B99E
BAA7
BA45
BA42
B975
BA8A
3A6E
3A2E
BB0B
38D0
3A67
B9D5
3A91
B9BF
BA70
BA7C
3AE5
3A5A
3971
3994
3A00
3A6A
399C
BA7C
3A7D
B98E
B926
B9C7
3A4D
BA0F
BA0E
3AE6
3B56
B94A
37CC
B983
BA5B
3A4D
BAC4
3ADB
39F0
BB0B
BA78
3AD6
3B07
B9D4
3A34
BA96
BA5E
BA29
3954
B8BF
39F2
B9E0
3A0B
393B
3AE2
3B05
B8F4
3A5E
3972
B855
B996
3A1D
BA6A
3A88
3AB1
3A33
B976
3AD1
3A80
39B7
B9DB
B9BC
37B8
BA02
B98C
39F9
B7D0
B9A4
BABA
39D3
BA0C
3AF5
3A2D
B932
BA80
B9A7
3A60
B89A
B9C0
BA14
BA76
3A4F
BA94
3996
39B7
BA26
38EA
3A42
B9BE
BA95
B9D0
B98E
B94C
BA23
3890
3971
3A9A
3A9D
BA61
3973
39E6
3A6C
BABE
BA72
3907
3A86
BA1F
3B19
B98E
3A98
BAB9
3A03
BAD0
3A0D
3A07
BA5F
BA2E
3A87
B7B1
B9AE
39FF
BAD2
3A2A
389D
3A57
BA97
B983
BAC7
3AA0
B9C3
3AAD
BA29
BA3F
3A6A
3935
B9AF
BAD1
BA88
3A5E
BA01
BAC1
BAB1
BAB6
3A11
39D5
3AD7
BA83
B889
BA08
BAA1
BAB7
B810
3AD0
39E8
B9DB
3AED
3B10
B93A
B9B9
BA79
3A2A
3A88
3AC9
B9A3
BA9E
3B02
BA8F
39BD
B8B3
3A8F
3AE8
B993
BA46
B80F
BA88
397B
BA6C
38AF
3A5D
BA40
BA46
3A63
3AB8
3A7D
3A04
BAC3
3A0F
3AAF
BA10
BA11
3A99
BABF
BA9E
BAE1
BA5E
B9F8
BA50
BA8A
385B
BA26
BB02
39ED
BA01
3A93
BA56
BA0F
3A11
3A98
BA28
B9C1
3AE8
BADC
BA23
39C4
B9F5
B9BD
3AEE
3921
BA3E
BA69
3941
B8CA
BAA1
3AF2
39A0
BAC7
3A53
3A96
BA03
3987
3A41
39D4
BA6D
3AF2
B840
BA92
B996
BA52
383B
39DD
3A5F
398A
BAC5
39AD
B83F
3A57
3A32
BA49
393B
BA4F
3A95
3ADE
3A91
3815
38B9
39A3
3A06
39B2
BACA
39A7
B95C
3B28
BA01
BA40
B9BA
B991
BA85
3A44
3AF7
399D
B9EA
3AD6
3923
3A48
3A71
3A91
3A9F
BAA9
3B01
BA7A
B9EC
3A07
3B20
3ADA
3ABF
3A08
3A2F
3A63
394B
38F0
3A71
3A00
39E5
39C3
BA34
BAE4
3AF6
B956
39ED
3A12
B98A
39A0
B9EC
BA47
BA31
B9E8
BA02
39C4
BA27
BA44
B9EE
3AE9
BA9F
BA76
B961
3A37
BA51
BA1D
3B0C
3AE2
BA35
B90C
B9B8
3A9E
BA95
3AB5
BA0C
BAEB
3AAD
BA0A
399B
B971
3A0C
3716
39ED
BAB2
BA04
392A
3B01
3A7D
3A17
BA26
B996
BA35
B9A0
B984
3A9E
3A1C
3A4A
39B5
BA1C
B983
3A8A
B9AD
BAA9
B9B2
BA8C
BAED
3A40
3988
B640
B912
B979
3AB8
B8E0
B8EB
3AE8
BA03
3A88
3A95
B943
BB19
38D0
3A5E
BA89
3B41
3A5D
B7CF
39B6
3AE0
3AA2
BA9C
3AC3
BAD7
3AF7
3922
3B14
BAF4
BA31
BA19
BACF
3A23
39BA
BAE2
BAC9
3AB4
3A34
B97E
3A46
3962
BB0C
3B53
3A67
BA22
3A82
3A86
B9BF
38EF
3A0E
BA0F
B935
3A52
BA6C
B8F2
B8D5
38B8
3AFF
BB0F
3A8D
3949
3AE8
B92B
B9BD
3B61
BA95
3AB4
BAAE
38DA
3A99
BA52
396D
BA30
3A71
B9A4
B9B9
BA26
B9CB
BAE5
3ADC
385A
B9A3
BA7B
39CF
3AD5
3A9B
3A17
BAD1
B8C3
390E
BAE7
3A91
39DB
BABB
3A38
3A49
3A09
3B1B
BA54
BA5F
B9A4
B9BE
3ACE
3920
BB7C
BB02
3A23
BA40
B8E2
B988
3A06
3880
3ABC
BA0A
BA4E
B942
3968
365C
3AA6
BA57
3A3A
BA3F
B7D9
B900
3A40
B93B
39B1
3A40
BA8D
BA66
BAE5
BB0B
3903
BA92
3A7A
3AA3
BAB4
39D0
BA96
37EE
BACE
BA11
BA0B
3A83
3A92
B9CD
BA7E
BAAE
BA83
B921
3A15
BB00
3A33
BA9F
3A44
3B2A
BB1E
3A3E
BA2E
3A08
39CF
3AA2
BAAF
3B12
3A12
B95B
BAB5
3A00
BA73
3A77
39F7
3A9C
B9BD
3ADE
B951
3B00
B9F3
B7D1
3815
BA85
3AC7
39B4
BA52
3A61
BA34
38DB
39F0
3A2A
BA0B
BA13
3AFA
BA22
B907
38E4
BA61
3AB6
BA85
BA82
38FC
3AE4
B862
BA1B
38AA
3AA0
37A5
3936
BA15
BA1C
39D5
3A64
BA7B
BA4D
BA99
BA4A
BA73
BA12
B92A
BA2C
BADD
3996
3AAF
39F5
B9AD
B924
394E
3A5C
B96F
3B13
B9A7
B99F
3AA4
3A44
B98F
3925
3874
BAEA
3A5A
B9DB
BB0E
3A6D
B875
392E
3A48
BAB3
39D8
39D1
BA1D
BAD5
BB2B
3B0D
3A5A
BA67
B9CC
BA00
BA55
BA18
3A45
B951
BA8B
3A8A
39DD
3AE3
BAD2
BA4B
3A67
BA19
BA70
3A2D
BA4F
B9EB
3A92
BA8D
3A1B
3AEC
BA46
B994
3914
BA12
BA04
3ADB
3A68
3ADD
39E5
BAED
BA79
3A8D
39E1
B9FF
B9D1
BAA0
3A25
3B21
BA2A
BAA5
BAC8
BB08
BA77
3A09
B934
B859
3AD7
399F
3A2F
3924
3923
BAAB
B937
B907
3AA2
3A83
BA54
B9AC
B838
BAA3
3A98
BA00
3A9E
BAD3
3A29
BA5F
B7F1
3AAB
3AA0
3AA3
BAD0
3A4F
BA5F
B786
B90B
BABB
3A24
3A40
BA08
3AD6
3A83
BA91
BA02
3B12
3B08
3A18
39F0
3A7B
36E5
B933
3824
392F
3A08
BA52
3AAE
3A9A
BA49
B9D7
38EB
38C7
39D7
B890
394D
3AB7
BA37
3AB2
BA13
39C3
39AD
B9C6
B951
39CD
3990
B96B
3A9D
BAF5
BAD5
3A0D
3A3E
B928
B988
397B
B95F
38F6
BB09
3A28
38CE
39D0
3AE3
BA21
39AD
3A85
B9A5
3969
39E0
BADF
3897
BAE0
BA45
3807
BA56
BA9B
39C8
3A3C
B98C
B9D3
BAA6
BA2E
BA30
3A25
3A15
39DA
BA27
3ACD
B903
3AC1
3934
3AD1
38D7
3A1E
3948
BA83
3A8F
3ABB
BA65
BA57
BA9B
B950
B9C5
B76C
B9BD
BA5C
3AD8
B891
B7C6
3AA0
39F7
39D0
3A24
3A85
BAA9
B9F5
3A0A
3975
3AFF
3ABC
3814
3A8F
B954
3A3C
BA46
3899
3AB9
3AED
399D
B8B9
3A6F
B9E8
BA7E
BA57
3931
3A4B
38BF
39C4
3A7C
3A82
3A09
BAE1
3A59
BAEE
B910
3A35
37BC
39E7
3B02
B955
B952
B990
39A5
BA46
BA6E
383F
3A93
BA39
BAC7
BB13
BA93
BAAF
39A5
B943
BA1D
BA0C
BA40
BAED
382C
B989
BA42
38DC
35B7
3920
3AA0
3A09
BA4E
B8D4
B9BD
3AAD
3B16
BA12
B71B
B8DE
BA51
3A4A
3A09
3996
3A4F
B9CF
B955
B758
B91D
BB01
BA96
B9B8
B99D
BA84
BACF
BA0F
BAA4
B9E1
BAB7
B813
BAB5
3B07
3ACB
BAAF
B9D2
BACE
B9D1
BA83
B975
3980
BB10
3A5E
BAC3
3B01
3A26
3AA0
B97D
3ACB
B9B4
B8B7
BB30
38FC
B8BD
3A75
38FC
398D
3AB0
BABA
39F2
3A92
BAA4
BA8A
B960
3ADB
39A3
BA15
B98F
3A75
B6EB
3A01
BAD5
B717
3ABE
3A87
BA5B
BAA9
B8A1
BA21
B9D2
39EF
3A17
B7A0
BA4F
BA60
3A58
B942
B99E
3AE8
B9FB
3913
3A26
BA28
B980
BA17
BA56
BA81
3B1F
B9C1
3A3C
3A08
3A89
BACD
3A88
B956
B8E8
3AA0
BA06
3B01
3ADD
B978
3A15
3A4E
3AA4
B9A1
3AC1
394E
39CA
3B26
BA39
3A29
38EF
39D3
BA35
B9D3
B934
39C7
B9F7
3A56
39E4
BA86
BA3E
376B
384C
39DC
3AA5
BA09
3868
3988
B970
B8C2
B92B
BA26
3A3D
3A53
BA17
BB11
BAB4
B9D1
BA98
BA74
BA0B
BA0B
3AB6
B9E7
BAA0
B983
3989
393D
3A23
B9AC
BA41
3ADD
BA83
BAAF
3A81
3B37
B981
3AB4
399E
3A18
BA91
BA01
B9CC
BA27
3A96
3ACA
397F
BAE9
3A1B
3AB0
B9C3
3970
B990
399D
3A2A
3AC3
BA85
3AE9
B9D7
3A60
BA9A
3A13
BA7E
BA52
3A24
BA6E
3935
BA9C
BAFF
3A99
BA20
3A3C
3AAC
3965
3B0E
3AA5
3882
BA82
BAB9
3943
B900
3771
3AE3
B900
BA27
3AB3
B887
B8A5
3A44
BA1E
391F
3B0D
B9B7
B9B1
3A6A
BA27
3A72
38DB
B8ED
3A27
BAF3
BA81
3A10
BA27
BAB9
3B1A
B96D
3AAA
BA8D
3A11
B9AB
3ACF
3A34
BA05
38AC
B9A2
B9C6
3A2A
39E9
39EC
B9E8
3A15
BA14
3A9C
3ABB
3A01
3A38
3A2B
3AA7
BB2C
B9CF
3B14
BA1A
BA34
B9B8
3A0A
38F4
B9D7
3A76
3A2C
BAB2
BA51
3A38
BAB0
BA68
B9A6
3AC8
3992
388F
3A0A
3A4B
39D7
BA8F
39D2
3A06
3ACE
3ABC
BAC2
3A33
3ABC
3AD7
3A30
BA8E
3A7F
3A6C
B908
3A15
BAC1
3A27
BA05
BA9C
BB0E
3996
BADC
39F8
BA9A
BAE2
BB3E
B94A
BA9D
BA8B
BA03
3987
B9B6
3A7E
BAEF
3954
BAEB
BA12
3A8E
3A2A
39C2
3A57
3A71
3A65
3B05
3AA0
3A2B
B9B2
3AC3
389D
394C
3A9B
3AEF
B9D7
3A41
37F6
39EE
39A9
395C
BA96
39EB
BA43
BAE0
B996
BADE
3B2D
3821
B9C1
3776
B90F
BB46
3A0F
3A94
3A77
3A8D
39CA
BA7F
3AB4
BA69
3A96
BA07
B882
39CB
3B4D
3AB6
37A3
39DE
BA91
39DF
BACA
BAA1
39FF
BAE1
3AB7
BA70
3A69
BA8A
3B24
BA3D
BA23
395D
3A98
3A44
38F7
3921
3A6D
38F2
B8D2
BA10
3AC3
3A2E
BA18
3A98
B98D
3A73
B97B
3A93
3A06
BAE1
BABA
3993
3A68
39C8
BA39
3B0C
39E1
B994
B9B5
3A39
B9B9
38F9
B9DB
BAA2
B967
B980
BA50
3946
38D1
3AAC
38F9
3B02
B9AE
BA80
3B03
B8EC
3A51
BB00
3AB1
3A88
3ADA
B9B3
BA58
3A25
BAA0
3A54
BA1E
3A7C
B992
BA51
B98F
B984
3A2B
3A88
3A30
B8A9
3A57
BB0A
BA85
3AAC
B9C7
BA02
BABC
3993
BA9F
3A55
3AEA
B8A5
37E0
3A1B
B9BA
B908
38C4
3795
3A36
3B3F
BA65
39FD
BB17
3898
BA89
BA6A
BA2B
B8D0
BABC
3906
B894
B9EA
3A0C
3A1F
3A42
3A10
BAF6
3A11
39E1
37A5
383E
3A38
3B06
3A29
B987
3A40
BA02
BA75
3A23
BA79
B7F8
398A
BA8F
3B36
B851
39FC
39CD
3A0B
3B35
B897
3A41
3834
396C
3A00
397F
38D7
BA31
3984
B9B8
BB0B
3ABC
3B01
39B3
3AD0
3AD1
BAA2
399E
39D6
B995
B848
BAD6
3A7E
BAC3
3A5B
39AF
3ACE
3755
B86D
3A4B
38B9
BA74
3967
3A8B
3A9B
398F
3A9D
3A5F
3AB6
BB04
3AC2
3AF5
3A88
3941
BB05
BA2F
B805
B9E9
39BC
BB05
B8E5
BA11
39C4
BA70
BA54
3A91
BAC9
39C4
3A97
39B7
BA4F
B9C8
BA2F
BAAA
3A31
39D0
37A0
3B23
BAAB
BB0D
39D4
3A3E
39CA
BA06
3983
3A85
3B0D
BA1A
39B2
BA7C
3AD9
38BB
3AC3
BA13
BAA4
3AB6
38E3
3AFF
BA9D
391B
BB09
BA2B
B946
3A6E
BB17
B992
BA00
BADC
BA24
BAF7
3A9D
37B3
BAA1
BA97
3A60
3ABF
3AD0
3995
3984
3A06
B911
BAAD
399F
BA7B
3A5B
3A16
3A91
B8BB
B952
BA7E
BAF6
37E9
3AE8
3A60
3A67
3AFC
B93B
BA52
3A58
BA4F
B937
B9E0
3A48
B927
39B9
BA7D
3A15
BA83
BA8A
BA40
B938
3A60
3A88
BA03
B883
BABB
B9BD
3A7E
BA83
BA40
BB16
B9AB
BA4F
3A8C
3A7F
BA80
BA67
3A8D
3A4A
BA29
3A15
3A85
3B27
B9C9
B834
3AC0
3A16
B937
B90C
BB16
B9B1
BADE
B8C4
BA98
BAF1
B924
3A8E
BA2A
39E7
BA73
3929
B962
BA8C
BB03
3A9E
3A4F
39B5
38F0
BAD6
3939
BA53
39DA
BADF
3A6F
3998
BAB6
391A
38D2
3A4D
B96C
3AAA
3A34
BA81
B81C
39A8
3710
B972
39A7
3AA7
B930
B90F
3A5E
3A6D
38BA
3A83
B917
BB0A
3A93
BA17
398F
39A7
BA68
3A90
B985
B9BA
39A6
3A8D
391A
3A44
B8C0
3A6D
39D4
39DE
3A54
3AAE
38BB
3A5B
B9D0
3A10
3A9C
3A03
3AF5
BA5E
3B0B
3A10
BAB4
3A89
39C0
3A19
B9AC
B8DD
3922
3959
BA48
3AA7
3A24
39D8
3A13
3A40
B925
3988
3B14
B9D9
3ABE
BA28
BA08
39D6
3A2E
3A22
BA0D
BA8D
BA48
3975
B9B3
3931
38A1
BA2D
B9CF
396E
B9BC
3A74
B976
B978
BA50
3A9B
BAC0
3A54
BA8C
36C2
BA99
BA25
3A59
BB0C
BB0B
39B7
B868
BA01
39A7
3A04
B847
B9FB
B8FE
BA09
3938
3952
3A05
3A94
BA54
BA72
3B28
BAB5
3B04
3A0B
B98E
3A14
BB15
3A34
B875
BA10
B83E
B9B0
BAB1
B976
B98A
BB06
39E7
3A90
B933
B9C7
BA61
B9DF
BA73
BABD
BA78
BA9A
3AEF
3A33
BA37
BA83
3A98
B7F2
3A35
BA0A
3A41
3793
3962
BA5F
3AB4
BA27
BA3E
3A4E
B9C1
BB21
3AB7
3AAB
BA16
B98B
BA58
BA45
BA11
3ADE
B9CE
BA20
3A9E
BA44
3AF8
BAA3
3A20
3AA8
3ABD
3A6E
3AC4
BACF
3A90
3A92
B939
3A52
BB0B
BABB
B9B9
3A66
BAB6
B8B9
BAA2
BA16
3AC9
3A11
BB17
3AC3
B922
BA2B
B9C1
BA54
B889
3AC3
399E
BAD6
3AD7
389E
39EC
3A30
BA67
BA9E
3A03
3A10
39CE
3A1B
BA85
BAAA
B932
3A39
39A7
3AEE
39DC
39A6
B90E
B99F
3933
BA4C
3A37
BA1F
B9AB
B818
3B08
3A41
B7CF
BA52
3A57
BA2B
39E9
B7B0
BA98
BA1D
B997
3A76
3938
BB0D
B93A
3A9F
3B16
3A94
B9D3
3ABB
BA8E
BAF9
BA01
3A88
B9C7
3AF4
B993
B92F
B982
BADD
3A73
B9B4
BA8B
B98A
38B6
3949
397F
3A55
3A7B
BAD6
B993
BA85
B837
B975
BA10
3995
B9E6
BA51
3AAE
B86D
397C
BAF4
B903
B942
39B8
3A60
3A72
BA2B
3A83
BAFB
B992
B9DD
BA03
BA30
3AA8
388D
B813
3A34
3A12
38AE
B989
BA8F
BA0A
BA14
3A95
BAC6
3A38
3A71
3A7F
3AA3
BA9B
BA22
BA68
39C9
BA90
BA20
B84D
BAF8
B9E0
B9B0
B9D3
BA25
3931
3A53
39A9
3A81
B79C
BACC
BA78
BA99
BA3E
BAD3
35F7
3AA6
393B
3A9B
3ACA
B7BB
BA6E
3A6C
3AA9
BB0F
394F
BB1B
B812
3AD0
3A4A
38C4
B9F5
BB09
BA42
3A4E
BADA
3A9D
B921
3AB9
3A07
B99B
3A02
3AB8
3A35
BAFE
3AF0
391F
B9A5
3A88
3A19
B915
3A15
BA49
B9AF
B9B0
B471
B8C2
3AB1
B9B2
B985
3ABF
38EB
3A54
B97C
3A61
3AAE
3A78
B956
3A1C
3AB6
B94C
39BF
B7DB
B9CF
3880
B986
B9AE
B9C4
BA40
BA80
BABA
B8E7
BAA8
B872
3A01
3AB8
BA7F
3A90
3AC0
BA6C
BA97
3989
3A4C
3AC2
BA82
39A6
BA06
3A8F
BA6A
BA40
BAC3
3A74
BAD9
BA36
B9D6
B964
BA3F
39F3
39A7
BA13
BA61
BA08
BAD9
39BC
3A8A
3A08
3A4D
BA8A
B862
3A9E
38BF
BA3C
B72D
B8F1
3AA5
BA9A
39BC
38D9
3B08
BA30
BA3A
B9F7
BA26
BA95
3785
B971
B9C0
BA69
39BC
3A81
BA38
3A8A
39CF
3B31
3B2D
BAA4
BAA0
3A54
3A48
3AC9
B99A
BAEF
BAEC
3A5A
3A9D
BA61
BABD
39AF
B88F
BA45
B9B4
BA10
3953
B9A0
3732
3AAB
BB0A
B913
B996
BA2F
B9EC
B91E
393F
3887
3993
3927
3AE0
3A85
3B20
BA75
BABF
B9A4
B82E
BA1A
3AA3
39B0
BA61
B9A2
B966
3A9A
BAC5
B980
3A81
B9CC
3A53
39C0
BABF
39B9
3AB0
BB16
39BA
BA23
392B
3A5C
B969
BA73
BA5C
BA1B
BA1C
3B0E
3A42
BA84
BA37
BAEB
BA1E
B881
BA26
B984
392E
3A99
3A51
B938
3996
3A5B
3A73
BA9A
3A62
39A7
B9CD
380A
B966
BA2B
BB16
BAB8
BA68
BA09
3A02
BA7E
B9FF
3A49
BAC3
39E8
3A9E
BAEE
3A41
BA33
3AAC
BAB7
BA0B
B9F7
BA01
393E
BB37
B903
3B39
B903
3A8B
BA22
3ACE
B99A
3943
BA4F
BA5D
BA61
3998
BA25
BA87
3A5F
BAD5
B9E0
B9B9
BA9C
3903
BAFE
B978
B7C5
B8E5
3AA4
BA65
BA03
B9DA
B9CC
3ACC
3926
B9ED
3952
3A5F
BAB1
BA04
BA09
3952
BA4C
BA97
B84A
BAD5
3A6A
B992
38CB
3A81
39CD
3A70
3A39
BB0E
B9A2
3AE0
B9FA
3AC6
BB40
3A4D
B932
BAA2
BA57
BA03
3926
BAF9
3A63
385A
B8FB
BA85
3A09
3A0C
3A23
B88E
BA07
BB33
BABB
B952
3998
3B13
3A31
3A2A
3A52
BA95
BA48
3A06
BA1E
3942
3B2A
BAC3
BA07
BA93
3A82
39E9
BA00
B9E5
BA3B
3A41
BA1F
3AE3
BA74
BAAF
BAEB
3AFA
BAD0
BADF
3A73
BA52
3A93
BA21
3AB1
3947
B9BB
B84C
3950
B8FA
3A3E
3A6F
BA0B
BAA2
3A3D
B6B4
3896
3A82
B99C
BA7C
394D
399B
BA11
BAF9
BAA2
37C5
B9B5
B9D5
3972
39B4
3A93
BA7A
B811
BA9D
3B03
BAA8
B8A8
3A2F
BA99
38F1
BA35
B97A
BA8C
B9AE
3AB6
BA78
B97E
39F9
B8B8
B9B6
3AEA
39CA
3887
B8E5
BA0C
39AC
380A
BA71
BA34
3AB0
BAE9
BA2B
BA5C
BA1F
BA9A
B8E6
3AB7
3AB9
3969
B940
B9B1
3A73
3B06
3A68
BA31
3A9F
BA73
3AB1
BAD2
3A95
BA4C
3AD0
3AAA
3A66
BA95
BAF4
BA61
3A51
BA05
B984
B8BD
B946
B97D
BB0C
39A2
39A8
3A8F
3AA4
B816
3A1D
38C2
BA7C
BA5E
3A8A
3B27
BA13
3A51
3A1A
BA81
BAF8
BA54
39E3
3A19
3ACE
BA71
3989
3A9E
3A02
B8F5
38BD
397A
3A91
BA14
3B13
B8E2
3B2B
3A4E
B7D8
BA84
39D5
BA7E
BA50
BAAF
BAC8
3A41
BA15
3892
3A8B
BA6E
3955
3A38
BAC7
378B
BAA6
39E9
3980
BA2C
39D1
38FE
B902
BA51
BA1E
3B52
3B2C
3A0C
BACF
3AA3
BAB9
3A9C
3A85
3A34
BA37
BB5D
3A84
BA3C
B8AE
39C7
3AA0
3AA4
BA11
B82A
BA42
38D5
3910
BAD3
3B50
3A23
38F7
3AE0
BAA0
3A9E
BA36
B892
BA89
B95E
B9D3
BAF4
3AC5
3AF9
BABD
3948
39D0
3AA3
3AC7
B973
3A96
3A9B
BA90
3A1E
B94D
3AE6
3A1E
BA75
B93A
3AFB
3A6E
BABA
3587
BA11
BACB
3A05
BA6D
BA9A
BAF0
3A15
3AB4
BA36
BA83
3A38
BAB8
B9B7
3A5C
BAC3
3B12
384F
B854
39B4
3979
3A1E
3A74
3AF6
3A89
BA9D
BA0A
BA50
3AB9
BA20
BA46
B983
396B
3A94
3973
BA3A
BA03
3ADA
B9B1
B991
3A6C
BA8D
3AD2
38BE
3977
BA80
B9A5
BAAB
3A58
BA73
BA88
3A45
39B7
BA6B
3B1C
B987
3A41
B98C
3994
39DF
39F9
BACC
3968
39BC
3A9F
BA88
3A95
3965
BAC6
3A58
BA7A
3B16
399E
3AEE
B98A
B86A
BA58
BAA2
B905
3B1F
3AC2
3A2F
B8BD
BA80
3A20
3947
3A68
B8C2
BAA9
BAF9
BA47
3A43
BA94
39F1
3A8C
B959
3986
391D
3905
BA6F
3A00
39BB
3A86
BA15
BA9F
3AE7
BA06
3A82
BA38
3943
3918
BA9D
3A88
BB12
3A23
3A2B
B9F6
BB13
BAE9
3AF2
39E8
39A8
BB25
BA92
BACA
BABE
B9D9
BA93
39CE
3A4B
BA51
38CC
BABF
3AF0
BAB3
B9D7
B97F
3A09
B9D3
BA9C
B95A
B9B2
3AD5
3AAF
BA63
BAA1
BA69
BA13
B9C3
BA8F
3A7C
BA0A
3A89
3A4D
3956
BAE9
BAD9
BA33
3A23
3AC9
B987
3B02
BA1E
BA8B
39B2
BAAC
BB36
BA38
3A04
3896
BB0A
BA25
B9AE
B9E8
BAD2
3A99
39A7
BB00
BAD6
B902
BA58
B988
B7D4
B853
3A0E
3990
390E
B8D0
B9D4
BB10
3A33
BA05
39D3
3A59
BAE7
380F
389B
BAB7
BAA7
3AAD
3A4E
BA93
BAB8
3A55
B9E3
BA98
BAA6
BAB2
3B3B
B8C0
BA68
3A99
396E
39C4
BACE
BA93
3AA6
BA68
B949
BA07
BA7A
BB0E
39D0
B994
3A53
39B4
38D9
BA09
3AA3
BAC3
3A89
BA53
394F
BA82
BA25
BA69
3A49
B9BB
3AA0
3A9B
B968
390E
B98C
B89E
B9D5
B9A1
B98A
B99D
BA17
3A15
3B21
397D
BADA
BA32
B9DC
B980
BA36
3A21
39A9
BA22
39DE
BAFB
BB2C
B90A
BA2C
BA55
39D4
B8A5
B8D1
BA86
3A7C
39D9
BA10
3A0A
BA91
39F0
3A44
BB06
BA9B
B809
3A83
B996
3ABB
39F3
BA0B
BA4F
38C9
3A7A
B941
373B
B992
BA87
B97F
3AAE
3A31
B96A
BAFC
3A98
B9DB
BAC0
B9D6
395C
3B0A
BB08
BA0B
B9C0
BABF
399F
B77F
BA93
383D
38AC
3B1B
3AA1
BA09
BA67
3AD6
BB05
BA86
3A1E
39AA
3AA5
B9AF
3A45
BA8D
3922
BA35
BADC
39D0
392F
BA9F
3A33
BA0D
3A36
3A45
3ABC
B9B3
B905
3AC9
BAC8
3B00
3B01
BA8C
3B0D
3A14
3A2A
BA58
3AE9
B83D
B88B
3A2D
BA82
BA32
B9C5
3A86
B82D
B9F9
3A0B
BA53
BA91
3A6F
38F4
3984
B9CD
BA51
3A85
3890
39C2
3A79
3AA4
BB13
39AE
BAAA
BADB
384A
39C7
3A66
BA82
BA74
3A21
B9A7
B85B
BA15
3A7D
BA05
3A9B
3905
B8D4
3AE8
3A5D
3A97
B9F2
B9BB
B8F3
B997
39DB
B980
37EB
395A
BA56
B9A2
B956
3B05
BAEA
3A5F
38E7
3A65
B9CD
BAA5
39D5
B9EC
B7C0
3A21
B923
3A86
3A41
BAC7
B9D4
B93E
B967
39A1
BA65
BAAB
3B08
B91D
B9AF
BA95
3A32
B88F
3A94
3A8B
3A9B
B977
3890
36A5
3AAC
BA62
3A14
BA39
3A65
BA66
3AD4
3853
36D9
3A8B
B9AD
3A34
BA79
BA17
BA68
39D3
B9D5
3A1B
3ABB
3AFA
B922
3ADE
BA86
BAF0
3947
3A01
BA89
3A9A
38F6
3A89
3A20
3A75
B8A4
BA6E
B90A
BA0E
3841
3984
B9C3
BAC8
3A51
B71C
3AE0
B94F
BA29
3A95
38C0
B8BC
3A45
3A24
BA9A
B91C
B917
3A04
BA0C
3A54
B885
3972
3A0A
BA13
B995
B915
39F2
3A80
3A4B
39C4
3A07
B9C8
B81E
BA2B
37D0
3A5C
B873
BA84
BA25
3A02
B71A
B9A6
BA2C
B920
BA93
B7D5
3A42
B79F
3A47
3ABE
BA80
390A
B82E
39BF
B94D
BAC5
B819
B98D
3AC9
3AF6
3A4D
39F8
BAAF
BA29
B9C6
BAA0
3AAF
B8A5
BA20
B9C9
BA72
B96D
3A62
3B0E
B9C2
B686
BA10
3A93
B9DB
BA12
B7A8
39A9
39DA
396E
39C3
3A22
BA2C
BA3D
3AB7
B9A6
3AA0
B9CC
3A47
3A1D
38B9
BABA
39B0
3A13
3B05
BAB6
3B10
3A96
BA8E
3A49
BA26
BA1B
B9B8
BA9B
3AA3
3891
3A42
BA86
BB0F
B93B
3902
BABB
B943
3A57
BAAB
B98F
39A6
3A3F
3B03
3A54
36BF
3A36
BA48
B7F3
BA40
39B7
BAAF
3AD9
BA16
BA30
38FA
3B13
BAB2
3A1A
BA6A
BACD
399A
BA91
3A6C
BA6B
3A18
BA1F
3AAD
B5E3
B9A1
3AD1
B9E4
BA9D
B8E2
BA9E
B99B
3AD8
BA73
BA9B
3ADF
BA40
BA89
B9EB
3A11
39E4
39E2
3A6D
3AA7
BAE2
BAA6
BA6A
3A09
3AAF
3AA3
39F4
388C
39C2
BA5D
3AD0
BAB6
BA79
B873
3A4B
3A9B
3A2B
3AAA
B98F
BAD7
392F
B906
3A3E
BA7B
B635
BA69
399D
3A27
BABC
3A8A
BA11
3A81
3ADD
BAAB
3A4E
B9AD
39A6
3A0E
BA38
B7F4
B9A1
3A34
3A70
BA68
391C
3A0E
3AA3
BA22
BA3A
396C
BA8E
BAB9
398D
B936
39AB
3A0D
3A42
3A3F
B84F
3A1F
B889
BA3B
3A31
BADE
B8A9
BA18
B9AF
B99E
3A2F
B9B5
3A1A
B936
3A3E
BA73
3843
BB16
BAE0
B941
39A9
B777
BA8C
3A98
399B
3989
3981
B920
3A1C
3A5F
BA34
BA54
3AEB
3B0F
B71D
BA09
3A9F
BA52
39B7
BA87
B92D
3AFF
397C
3953
3A6E
3A87
BA93
3A84
3901
3978
B8C4
BAB6
BA89
364C
BA8B
B980
BA14
3A35
BB3F
36A3
BA23
3A97
38DD
BAA4
3A13
3A9D
3AB7
BA4D
38CC
BA2A
BA8E
3B22
B9D9
39E4
3A6B
B8FB
BB29
BAA2
BA8B
3AB5
3819
3AE1
BB1B
3B05
BA12
38E7
3A99
BA29
BA65
BA8A
B97D
3878
BA2D
BA8D
B9A7
B9CE
3903
B90B
398E
39F1
3A6E
B9F6
3A28
BACB
3A97
B986
3968
38D8
3A12
B9B0
BA83
3ACC
3A99
B8ED
3A01
BA13
3A71
3953
3966
B9ED
3A92
3B22
BB25
3A03
3AB4
BA55
B9BB
BA71
3AEB
B9A6
BB12
3A67
3A16
3B01
B78E
37B6
3A31
BA7B
3A7E
3AC7
BA30
BA63
3A50
B9D0
BA93
3968
3B1E
B94B
BB00
3A62
39CB
B9AA
3A7B
3AA8
B9ED
B9CC
37E0
B9AF
3984
3AA1
B9D0
396A
BA68
B9D5
BAA1
3ABC
B906
BA09
BB23
BA56
BB0C
39C5
BA53
3AB8
3A87
BB02
3996
BB0D
BA8E
B9F5
BAD7
BAE5
3993
3A81
BA80
BA3E
B9A1
39F6
B98A
BA41
3AB5
388F
BA4A
3AB9
39E5
38EC
38B3
B970
B9ED
BAAF
BAB1
3A84
3A3A
B99C
BA5D
B9CD
3ACB
3A4B
B935
BA84
B887
BA77
393E
B987
B93C
BA2F
BA25
BA64
39E6
BA28
BAAD
3A47
BA73
3A37
BAC1
BA7C
3A18
B872
3948
BA32
39A2
BAFA
391A
3AC1
396D
B9A3
BA56
BA21
39E8
B90C
BADE
BA86
3A7C
BB12
BA03
BA8A
3B3A
BA50
BA14
B942
BAA2
3A94
BA95
3A2F
B9D7
36DA
BA26
BA30
BA7E
BA21
B93C
3A27
3B31
3A05
B9B2
BAA8
3A24
39BC
BA2A
BB02
3A58
3A0A
3A8B
3A2C
BAC4
B9F8
3B40
3AE4
B951
3A15
BADC
BAAE
BACB
BA02
BAC1
3A82
3A0E
3A4C
B8BC
B8AD
3A92
BA09
B9F4
BA37
3A22
BA81
39B1
BA76
BAC7
BAA8
B9B3
BAA8
3AAF
B965
BA98
BA1E
BADA
BA2D
38F7
3B0F
3A81
B989
BA06
BA36
39B7
B91D
3A10
BAA2
BA26
3973
3A08
3A41
39EA
39EA
BA94
BB0B
BA7D
BA75
3A23
BB0F
BAEE
3AD3
BAEA
3A94
3ACA
BAA2
BA40
BA94
3A1A
BA25
39ED
3A5D
B927
B9C9
BA79
3A8E
3AAF
BA08
3901
B982
3930
BA49
B9C8
BA59
B90C
3AAA
3904
BA0C
B9D2
B9C7
B95C
BA85
379B
38AD
BAE2
3AAC
3B24
39A9
BA0D
B9FE
BAA4
BA31
B975
BA25
BB46
BA5E
3ABD
39CD
BA44
3AAD
BA80
B98E
3A90
B8EA
39AA
BA1B
3AD9
B9E1
BAA2
3B00
BA07
BAD2
BAAA
3B14
B886
B96C
3A5F
3AF4
3A8A
BAC7
BA8E
3A53
39F9
BA8C
BA99
39A2
39A8
BAA3
3A96
BAA5
B937
3A2A
BA32
BAEA
3A8A
B96A
3ADF
3A86
BA4B
37E9
B946
3A15
3AB0
3891
3AE7
3A34
BB07
B986
B996
3A78
3A38
389C
3971
3AD2
BA06
3991
B945
BA96
BA98
39D5
BAB8
B9AB
B9E8
B9DC
3A81
3A17
3A43
B952
3ADB
B846
3A1F
B810
BA80
BA95
BA88
B913
BA00
BB2F
386E
BB02
BA5C
38BB
B8F3
BAAB
BA13
3A7B
BA30
3972
3A49
BAD8
BAFC
B9AC
3AC8
3AA3
BA6D
3A0F
3967
39F5
3A87
3A46
396C
B995
3AEE
3AEB
B8AD
B9BA
B9E6
BA66
391D
3A69
3ACC
BA6A
B9BD
395B
B955
39BB
BA02
BA99
B907
3A5A
3A7F
385D
BAE3
BAE5
BB27
BA1D
3A0F
B915
BA65
BA34
3A8B
3AC8
BAC5
BA2A
3973
BAA9
B832
3A39
B99C
BA86
3A83
3A8A
BA9B
B91D
3A8A
3882
3A02
BADA
3B28
3ABF
3976
BB2E
B98A
BAB2
39C8
BAA5
3A66
3977
B7A5
B846
395A
BA57
3A03
BA02
BA88
BAD3
B9AD
B8B9
3AA2
BA4A
38BC
39DF
3A8C
3AB2
39FF
BA66
BA92
3B1B
BADB
3A12
BA7D
3AAD
B986
3AB7
399F
3AEA
3A70
3AE6
BAAC
B9FA
3AB4
3A09
BAA3
B7B0
3A5E
BB0F
BA4C
3940
B982
B8B8
B9CD
BA8C
39C0
BA96
BA78
BA4A
BAC2
3AB1
3AB5
B8AB
BAEF
BA2D
BACA
38E1
3A00
B842
398B
B796
B97C
3A3F
3A58
3AF2
BB0B
3A92
BB37
BA09
BA85
3B12
BA81
3955
B9E8
399C
B8B9
3AEF
39BB
3B05
3AF0
3892
BAD8
BA8E
3B50
39E0
BA33
3974
3A6E
B99A
3A4C
BA13
BB05
3AED
3A5A
3A04
BA5F
BA0A
BA1C
BA8B
B8CA
3A56
B9CE
39A4
3AE2
BA6A
3AC9
3922
3A40
3B08
3923
3A18
BA85
B7B9
39C4
B533
3A16
3A09
BAA0
BAFD
3955
3A0F
3979
3AE4
38B1
BA29
BAE1
B99E
BAA4
BABC
3A15
B907
BA5C
B93C
3A48
3B01
BACF
3A8F
B9C1
3A0F
B9EC
BA22
3A71
BAC0
39C0
B9DD
B7CC
B9DD
3ABC
33F8
396A
3A3A
B88A
B98A
3ACB
3A72
396E
BA0A
BA3D
3820
3A74
3AAB
BA2E
BA0C
399F
B96D
B9DE
B9F7
3A80
B9B1
3AA4
39E4
397C
BA2A
BAA8
BA87
BAEC
3AB8
39DF
BA3B
3A88
BA4A
3A10
BB02
389B
391E
BA07
BB32
3A5C
3A6F
B9BF
3A23
BAD6
BB29
BA2C
B8C2
BA94
B96B
3AC2
BA14
3A0D
3ACA
3B28
3A55
BA88
3A2F
B9FD
3AB5
39A7
391F
B9E2
3A3C
3B04
3A5D
BA85
B94B
39FF
BA16
3A22
39C9
3AB7
BAC9
3936
B984
BA40
3A30
39F4
B987
BA63
39DE
39E3
3869
3944
3A35
BAA6
B968
BA56
38D3
BA50
38A3
BA30
3A43
BB0B
3918
BAB0
B7EF
3A98
3A5A
BA9D
3B02
B9A0
BAE2
3968
B99F
3A5D
BA76
BA49
39E7
39CF
BACE
38A4
3AA3
3A86
B96C
3A11
39EE
3745
B820
BA66
BA97
BAAD
3AB0
3B2A
BA99
BA9D
3A98
BA83
3957
BA0D
BA8A
3A6A
B8CE
3A87
394F
3AAB
3A3F
380A
B8AB
BA2D
B9E8
3945
B9E3
3A53
BA2F
3A99
BB00
39A2
B91D
3A41
3A84
B957
BA7F
39CF
B959
3AE4
3A97
BAB2
3A95
BB14
3955
B9F2
B9EA
3A26
B9ED
B979
393D
B909
3A5E
3AD6
BA9A
B9EA
39A7
B99B
3934
BB0A
3A0F
BA69
B938
BA85
39A0
B8BB
B964
3A14
B734
3B07
397F
BA47
3891
3A61
3AB4
BA34
3A17
39F7
BB2A
39F5
3960
3AAE
B9B8
BA0F
3B04
BA81
3992
393F
3A48
3949
BA23
BAAC
B962
BA90
3AC9
3A56
3990
BA4E
B993
BABF
B998
BA06
39FD
3A1E
BABB
3AC0
BA0C
BA2C
3AD6
3A82
38CA
3852
3B0E
BB1A
B9FE
3A81
BAC9
BA27
3A0A
BA77
BA5D
3A19
BA59
385B
B99D
3A11
38D0
BA89
BA87
B4D7
3A47
39F2
38F0
39B8
BA3A
3973
BA22
B8FA
BA38
BA97
B879
B995
BA5A
3AEC
3A9C
399C
B9E7
3A9A
3958
3A1E
B8FA
3A18
B957
BA40
3A71
3957
3ADA
39AB
3A74
BA11
3913
3AA7
BB17
BAB9
BAA1
BAA3
3A48
39B7
B8B3
399C
B9A7
BAEF
3B0C
39F9
3B24
BA96
BA41
3AE0
3B07
BA05
39F6
B56B
39B8
BA45
3A3F
39BA
B974
BA11
BA2F
379E
BA9B
BB14
BA5C
BAA8
BAC5
B9F2
3A01
BA2B
B87B
3A59
BA67
398E
BACE
B8D6
38C8
3A82
B9ED
3830
3943
B985
BA20
3971
3A40
3887
3965
39B9
BB0F
B9EF
BA91
39C1
3866
B988
BA93
3AAD
B909
38A1
B810
BAB7
BA18
3A17
3A1B
B876
BABB
3803
3A4E
BB1B
BAA0
3A04
BADE
BABB
BA21
3AE1
3AA4
BA46
3A1A
38F6
3947
BAF5
BB07
BAB1
3A1E
BA65
39BE
B9DA
3A19
B96E
39EE
B8A5
BA8C
B9CD
3ABB
391F
3AD0
BB03
3A60
BA1A
BA3A
3A6F
3A61
39A7
3977
3820
B935
B96A
B93D
3AA2
39CB
3AF0
3A2F
3A19
BAA2
39FC
B8AB
3949
BAF0
BAE7
BA7D
398B
BA0A
B913
39A3
3A39
3897
3974
3A8B
BB03
3A3A
39D2
3A25
3A9B
3A44
BA3E
BA2D
B99F
3A77
3A7D
B7C6
BA63
3A39
3A68
3A18
3A87
BB09
B9F9
3A15
39A8
BAB1
3A08
BA07
3835
3992
BA50
3A2A
3B1E
3A51
BA37
3998
BA2A
3A88
BA80
3A82
B971
391C
3A12
3A97
BA2B
3ACA
3A89
394C
B930
B5AD
3A03
39C0
BA1F
3995
BB23
3AB4
3A67
B966
39D9
BA9A
39DC
BA31
3A82
37AD
B80A
B933
BA45
BA8B
3A10
BA23
3AB2
BAE2
3A34
39EA
3A8D
3A71
3A82
BA51
B693
BA2F
BA75
3AA7
3AD9
3ACF
BA82
3A08
B920
39B4
3B02
36D1
BAB7
B9D8
BA9A
BA7C
BAAC
3986
3920
399A
3AB0
3A33
3AB3
BA70
B70C
BAC5
BA6A
BA83
3AE3
39A5
3947
3A2B
395B
3A0C
BA7D
BA3B
BA95
BAA0
3AF8
BAEA
3AD5
BA17
388C
3A04
39A9
3A4A
BADE
BAA6
379D
39E8
BAAA
39F7
B93B
B9F9
39F3
B8D4
BA40
B9E4
BAE1
384D
3A54
39B0
BA74
3A3D
B9BD
BA05
3A4F
BA61
BA04
3AFE
3A05
BA41
3A68
B9FF
38DB
B9E0
B999
B68C
39CF
BAD1
B86F
B866
3A8A
B87B
BAF1
36B3
3A5F
3AFF
38A1
BB0A
BA38
BAFD
B930
BA6F
3963
3A61
3A15
BB23
3A4F
BAE8
384D
BB21
B9F2
B96B
B9D9
B99A
BA0C
B947
39FE
B9C1
3B1F
3998
BAEE
39A0
3AAB
3A7C
39D2
B9A4
3A80
3983
BB0A
B9B9
BA98
BA2E
B9E2
38DB
BA1B
B9A3
B772
B8F3
39B9
BA29
3AD8
BA60
3A3C
BACD
B958
B9CA
3952
BA4F
B976
3822
BA9B
39C8
BA47
BAF2
3A98
BA75
3936
3922
B8F7
BA9A
39FD
B94C
B9A6
3A1B
B9CC
3A82
39EF
BA1E
39CF
3985
B9BD
3A09
BA99
B9F8
3A7B
BA98
3A3D
39F1
3A4A
3991
BA36
3A52
BAAF
BA1C
BA96
3A8D
3B02
38F6
B9D2
BA41
BABC
BA58
BA8C
3A69
BA9F
3A82
B932
BA1E
BA10
3A60
39D5
B9D4
3A1E
BAA6
BA90
39BA
BAB5
3AEA
BB31
3A08
39D3
38FF
3A8D
BA72
B788
3943
3994
3A9D
3B3F
3AA7
3B1C
3B18
B85C
B98A
BAA0
3A53
BA01
BA21
3A44
3A1D
B99F
B7AD
3A7C
39F0
B961
3A96
BAD0
3A16
BA24
B97E
B92C
3899
BA17
BA59
BAAB
3988
3A8A
BA0D
3A3C
3A8A
BACC
BB03
3A8E
3A4B
3872
BA47
BA27
39DE
B9D8
BA93
B9C5
BA43
BA91
BA97
3A63
BABC
BA84
3A4A
B892
399E
3A9A
BA79
BAD9
3AE4
3A1E
3921
B9CB
38C3
B916
BAF0
BA2D
39C3
3A8F
B91C
375F
3A9A
BA5F
BA53
BAF1
BA04
B936
39A0
3AA8
3AA2
BA34
BAF4
3909
BAAA
3A6D
BAAE
3998
398E
B8D6
3A60
3AE6
3885
3A5F
B99F
38BB
3A9A
39F8
3A75
39C2
BA59
386E
39A4
3A4E
BA4A
BA39
3968
BA13
BAEF
B9DA
BA82
BA44
B930
3A80
BADC
3ACE
3A9A
BA49
3900
BAE5
BA0F
3A6E
BAC8
BA3D
BA8B
39BB
3AD1
B982
BAC5
BB0E
B9B6
B88A
3A87
B9F2
BA41
3A94
BA0E
BB46
BAE7
B99A
BA5D
3989
3A01
BAC6
B9B3
3A49
37F5
B9EB
3927
B9ED
3984
3ABC
3AC3
3AA4
BADD
3A51
3ABA
BA52
B940
BABE
BB4C
3A0F
3A4C
BA4F
3917
BAA4
3AB8
B9E4
38DE
3A98
BA5E
BB10
B9AE
BAB4
3AB5
39F8
3A63
BA82
B981
3AA9
3AF3
3A87
39AF
3A87
395E
3904
36E4
3A12
391D
3A3F
BA33
3A9F
3A86
BA2E
BA82
39F1
BA08
3896
3B20
B9A8
3A36
BA20
BB2B
BAC8
BAAF
BABE
BAFF
3A60
BAAA
3A57
39DA
3932
BA5B
3871
BAC7
3848
BA48
39D7
39DE
B978
3AD0
3A99
BB10
398C
3A9F
B9E9
B994
3A9E
BA81
BA83
BA5C
B980
3A95
39DF
B88A
399B
39F4
BA6B
3A32
BA81
B846
39AB
BA87
39F9
3993
B96D
B999
390A
3A04
39C9
39D2
39C2
BA3F
BAB7
B8CF
3A8D
BA80
3B04
BA40
B994
BA01
BB17
3AE7
3A6B
390A
3A3F
3ACC
3995
BA32
39E2
BAD0
BA48
BA14
BA09
3A5C
B9D4
BAD1
BAAF
3B2E
3A02
39E0
B910
3B0C
3986
B758
38C1
3A38
BA13
BA7C
BA2E
B9C3
BAD3
39FE
3A8E
3AEB
3823
BA29
3A9B
3994
381A
BA74
BB0C
3ABC
B8DD
B9EE
B946
BA6B
B91A
3AC8
39EE
B99A
3987
3A08
BA83
3913
BAAF
37BB
B988
3A9C
BB00
3A51
3AC6
BA4C
393C
BB1A
B839
3831
BA99
39DC
BB17
398F
BA53
B9FE
39D8
BABB
3A76
B960
3AA9
BB02
3AC6
3A9E
BA5C
39A7
BAAB
BB07
3A7F
3AB6
3A7A
B9EB
3A76
39F8
B8C7
3AE4
B9D0
3A8A
39A2
3948
3A63
BAE2
3901
3927
BA2A
BA20
37B1
B9C6
BA7C
3A90
BAA1
BA38
3B1D
B9CE
3A14
3842
BA8E
37A6
BA8C
B9ED
B830
BA4E
3AA4
BA88
38F1
3A5B
BB09
3A02
3990
B9E8
3A8F
B991
BA08
3974
3A4C
B88D
B97B
BA96
3A7D
B919
3A99
BAC0
38F0
BA37
BA1B
3B01
B9BE
3A93
3AB1
3A53
380A
BA93
BB20
3A00
BA59
BA9E
3A91
3AA9
38CA
B9F6
39FD
BAA8
3AAE
BB1E
BACF
B95F
B940
BB42
BA99
3AA8
3A93
39DC
B575
3A32
391B
BABE
3A64
BA08
BA99
39BC
38DA
B909
BA68
BA36
399A
3ABE
3A51
BABC
3917
BA7B
3A45
399C
BA0B
BAAE
B98D
3856
3AAC
B924
BA6C
BA1E
B931
3ACE
B879
3915
376C
BA8C
3ADA
3A83
38CC
3A90
3AAF
3997
B943
BA78
3A99
3AF9
39F4
BAAB
B987
3719
B9A6
BB1F
B9DE
B911
3A82
392C
BB07
396E
3923
3996
39DD
BA9D
B8B6
3927
BA27
B7ED
388B
B92E
3A35
BABF
BA89
3977
BA11
3803
B8DB
BB11
BA59
B93B
BA21
3A3B
BA03
B77F
3995
3A89
3AB6
BA3D
BA1F
382C
3AC1
B9B0
BAF1
BA0E
3AC3
BAA0
3AFF
3B1B
BA78
BA87
39B2
3946
B8B0
B800
3AA2
39AB
BA70
B80D
3A86
3A80
37F9
BAA2
BA73
390D
B98C
BAB6
B86A
3A1D
B9C3
BA10
39FF
BAED
BB1C
3989
3934
B86A
B937
B991
3AE1
37A9
BAFF
B9A5
3A4B
3A56
BA78
BA15
B8E2
B920
B91C
BA62
3A82
BAFC
38C9
BA30
399B
BB00
377E
BA19
BB0A
BA90
3AA6
BB0D
BA27
3AA4
BAD0
39A9
BA56
BB0D
BA55
BA3C
3A35
B9B9
3926
3A86
BACA
3A83
BA11
BACE
3A25
371F
3AA1
BA83
3986
3AB7
39E4
B88C
BA9C
BA33
3ADE
B825
3B04
3A67
BA9A
B98F
BA66
BA0F
BA33
BA0E
3A9D
B92D
3A7D
3AC6
3A80
BAC0
B9C9
3A56
BA0B
38EE
3A4C
3A43
398E
3AB8
3944
3AB0
38C1
3992
B9B2
3A85
BB13
391A
3AAA
3829
39D2
B96B
3AC5
3998
BA18
3A91
BA30
3A55
3AA1
B971
3AAF
BA90
BA56
3B10
3B03
B8DB
3A20
3ACE
3AB8
B7DE
B969
B9C9
B7BC
BA42
3B6D
B939
BA0C
B992
B84C
BA8C
B825
BA3B
BA10
3B16
BABD
39C3
B9BD
3B01
B806
3976
3B33
B6EB
BAAC
BA38
B9D8
3A82
BA9A
BA23
B8C6
B974
39BB
B804
B932
3AD3
BA18
BA03
B9BB
3A2E
BA04
3AD5
3AEE
3A24
BA15
3A29
3A1F
BA06
38FF
BA27
38F0
BAAA
BA1F
BA99
3A87
3A4E
B8EA
37BA
3A99
BA9D
39A4
3AE3
B96C
3A95
BAFD
BA4B
3A13
3A82
BA50
BA1B
388B
3922
3A58
394F
3ACE
3787
392D
3AB0
B863
B9DB
3A47
3A83
3A15
B9AD
3A13
3B01
B9F3
B982
B9DA
39FE
3B10
BAE7
B9BF
B9D4
39E7
BA13
36AC
B9E1
B9C5
BA57
BAAA
B826
BA4A
3A1D
3994
B7FE
3A21
39FD
BA43
B9B6
3AA4
39BB
B9ED
383D
3991
BA85
391A
BAB7
BA75
B9BA
B9E0
3B18
3A97
3A8A
3982
395C
BAB9
B72D
3A5C
B9EC
3A10
BA2F
3A6E
3A7B
B8DE
B717
3837
B90C
B975
398C
3905
3801
39E2
3A00
BB2C
3A28
B904
BA8A
BA6A
3A86
BAE6
BA0C
39BA
3A18
BA80
3A2F
BADE
394E
3B17
BA33
3AFE
3A1A
B83D
BAAE
BA89
3A36
B8EB
3969
3A9E
3AAE
B8CA
BA0A
3A54
B9BA
3A3B
B930
B9A5
B936
38C3
B9CD
3B16
BAA3
3A26
39CF
3A16
3969
3A6B
B9E1
3AA3
398E
BA16
3967
BAFD
BB21
B8D9
BB25
BAD4
3A1B
3A94
3951
BA91
B9CF
BA71
39D0
B9BA
BAD1
3A54
BA5B
3AD1
BA14
3A06
BAB1
BA6E
BA6A
3A5A
BA75
3AA7
3AD5
BAB1
3A05
3B1F
BA86
B99C
BAE9
3AD9
39D7
3AD3
BA53
3A72
BA2F
BA25
B848
38B5
BA20
BAAF
3A45
394A
BADC
BA0B
B890
3A27
3943
3ACB
BA34
B4CD
BAA4
BB08
3A22
BAC5
39E6
3A53
B7E4
3A2C
3A02
BA38
3A1D
3ACD
39E9
BB0A
BA09
3675
B96D
3A3A
3A80
3B30
3B10
3990
